const unsigned char smart_env_model_tflite[] = { 0x1c, 0x00, 0x00, 0x00, 0x54, 0x46, 0x4c, 0x33, 0x14, 0x00, 0x20, 0x00, 0x1c, 0x00, 0x18, 0x00, 0x14, 0x00, 0x10, 0x00, 0x0c, 0x00, 0x00, 0x00, 0x08, 0x00, 0x04, 0x00, 0x14, 0x00, 0x00, 0x00, 0x1c, 0x00, 0x00, 0x00, 0x8c, 0x00, 0x00, 0x00, 0xe4, 0x00, 0x00, 0x00, 0x34, 0x05, 0x00, 0x00, 0x44, 0x05, 0x00, 0x00, 0x34, 0x0b, 0x00, 0x00, 0x03, 0x00, 0x00, 0x00, 0x01, 0x00, 0x00, 0x00, 0x04, 0x00, 0x00, 0x00, 0x7e, 0xfa, 0xff, 0xff, 0x0c, 0x00, 0x00, 0x00, 0x1c, 0x00, 0x00, 0x00, 0x3c, 0x00, 0x00, 0x00, 0x0f, 0x00, 0x00, 0x00, 0x73, 0x65, 0x72, 0x76, 0x69, 0x6e, 0x67, 0x5f, 0x64, 0x65, 0x66, 0x61, 0x75, 0x6c, 0x74, 0x00, 0x01, 0x00, 0x00, 0x00, 0x04, 0x00, 0x00, 0x00, 0x90, 0xff, 0xff, 0xff, 0x0a, 0x00, 0x00, 0x00, 0x04, 0x00, 0x00, 0x00, 0x08, 0x00, 0x00, 0x00, 0x6f, 0x75, 0x74, 0x70, 0x75, 0x74, 0x5f, 0x30, 0x00, 0x00, 0x00, 0x00, 0x01, 0x00, 0x00, 0x00, 0x04, 0x00, 0x00, 0x00, 0x6e, 0xfb, 0xff, 0xff, 0x04, 0x00, 0x00, 0x00, 0x0c, 0x00, 0x00, 0x00, 0x6b, 0x65, 0x72, 0x61, 0x73, 0x5f, 0x74, 0x65, 0x6e, 0x73, 0x6f, 0x72, 0x00, 0x00, 0x00, 0x00, 0x02, 0x00, 0x00, 0x00, 0x34, 0x00, 0x00, 0x00, 0x04, 0x00, 0x00, 0x00, 0xdc, 0xff, 0xff, 0xff, 0x0d, 0x00, 0x00, 0x00, 0x04, 0x00, 0x00, 0x00, 0x13, 0x00, 0x00, 0x00, 0x43, 0x4f, 0x4e, 0x56, 0x45, 0x52, 0x53, 0x49, 0x4f, 0x4e, 0x5f, 0x4d, 0x45, 0x54, 0x41, 0x44, 0x41, 0x54, 0x41, 0x00, 0x08, 0x00, 0x0c, 0x00, 0x08, 0x00, 0x04, 0x00, 0x08, 0x00, 0x00, 0x00, 0x0c, 0x00, 0x00, 0x00, 0x04, 0x00, 0x00, 0x00, 0x13, 0x00, 0x00, 0x00, 0x6d, 0x69, 0x6e, 0x5f, 0x72, 0x75, 0x6e, 0x74, 0x69, 0x6d, 0x65, 0x5f, 0x76, 0x65, 0x72, 0x73, 0x69, 0x6f, 0x6e, 0x00, 0x0e, 0x00, 0x00, 0x00, 0x4c, 0x04, 0x00, 0x00, 0x44, 0x04, 0x00, 0x00, 0x14, 0x04, 0x00, 0x00, 0xf4, 0x03, 0x00, 0x00, 0xa4, 0x03, 0x00, 0x00, 0x94, 0x01, 0x00, 0x00, 0x04, 0x01, 0x00, 0x00, 0xb4, 0x00, 0x00, 0x00, 0xac, 0x00, 0x00, 0x00, 0xa4, 0x00, 0x00, 0x00, 0x9c, 0x00, 0x00, 0x00, 0x94, 0x00, 0x00, 0x00, 0x74, 0x00, 0x00, 0x00, 0x04, 0x00, 0x00, 0x00, 0x22, 0xfc, 0xff, 0xff, 0x04, 0x00, 0x00, 0x00, 0x60, 0x00, 0x00, 0x00, 0x0c, 0x00, 0x00, 0x00, 0x08, 0x00, 0x0e, 0x00, 0x08, 0x00, 0x04, 0x00, 0x08, 0x00, 0x00, 0x00, 0x10, 0x00, 0x00, 0x00, 0x28, 0x00, 0x00, 0x00, 0x00, 0x00, 0x06, 0x00, 0x08, 0x00, 0x04, 0x00, 0x06, 0x00, 0x00, 0x00, 0x04, 0x00, 0x00, 0x00, 0x01, 0x00, 0x00, 0x00, 0xea, 0x03, 0x00, 0x00, 0x0c, 0x00, 0x18, 0x00, 0x14, 0x00, 0x10, 0x00, 0x0c, 0x00, 0x04, 0x00, 0x0c, 0x00, 0x00, 0x00, 0xdf, 0x6f, 0xdd, 0x51, 0x5d, 0x31, 0x73, 0x96, 0x02, 0x00, 0x00, 0x00, 0x02, 0x00, 0x00, 0x00, 0x04, 0x00, 0x00, 0x00, 0x06, 0x00, 0x00, 0x00, 0x32, 0x2e, 0x32, 0x31, 0x2e, 0x30, 0x00, 0x00, 0x8e, 0xfc, 0xff, 0xff, 0x04, 0x00, 0x00, 0x00, 0x10, 0x00, 0x00, 0x00, 0x31, 0x2e, 0x31, 0x34, 0x2e, 0x30, 0x00, 0x00, 0x00, 0x00, 0x00, 0x00, 0x00, 0x00, 0x00, 0x00, 0xa0, 0xf6, 0xff, 0xff, 0xa4, 0xf6, 0xff, 0xff, 0xa8, 0xf6, 0xff, 0xff, 0xac, 0xf6, 0xff, 0xff, 0xba, 0xfc, 0xff, 0xff, 0x04, 0x00, 0x00, 0x00, 0x40, 0x00, 0x00, 0x00, 0x8c, 0xae, 0xf2, 0xbd, 0xce, 0xb3, 0x8d, 0x3d, 0xf1, 0x6d, 0x15, 0xbf, 0x26, 0xfe, 0x19, 0xbf, 0x74, 0x54, 0x7a, 0x3f, 0x5e, 0x53, 0x21, 0x3e, 0xb9, 0xd9, 0x50, 0xbe, 0xac, 0xd5, 0x1d, 0x3f, 0x00, 0x00, 0x00, 0x00, 0x00, 0x00, 0x00, 0x00, 0xf8, 0x38, 0x8d, 0xbe, 0xcd, 0x11, 0xb9, 0x3e, 0x24, 0xb7, 0x03, 0xbf, 0x16, 0xe8, 0x69, 0x3f, 0x00, 0x00, 0x00, 0x00, 0x99, 0xc1, 0x09, 0xbe, 0x06, 0xfd, 0xff, 0xff, 0x04, 0x00, 0x00, 0x00, 0x80, 0x00, 0x00, 0x00, 0x32, 0x75, 0x8d, 0x3e, 0xb1, 0x62, 0x05, 0xbf, 0x51, 0xfc, 0x4e, 0x3e, 0x63, 0xd4, 0xe4, 0x3f, 0xc3, 0xf4, 0xd7, 0x3e, 0x11, 0xbf, 0xc1, 0x3f, 0xdf, 0x9f, 0xa6, 0x3f, 0x24, 0x2a, 0x63, 0x3e, 0x13, 0x7c, 0x84, 0xbf, 0x42, 0x5c, 0x2e, 0x3d, 0x4e, 0xc5, 0x5e, 0x3f, 0xf9, 0x40, 0x01, 0xbf, 0xab, 0x4e, 0xa1, 0x3f, 0x2e, 0x8c, 0xa0, 0xbe, 0x2a, 0x80, 0x36, 0x3f, 0xe1, 0x55, 0xda, 0xbe, 0xdf, 0x6f, 0x8d, 0xbe, 0xec, 0x9d, 0xec, 0xbd, 0xbc, 0xfc, 0x12, 0xbe, 0x20, 0x76, 0xdd, 0xbc, 0x6f, 0xf2, 0x9c, 0x3f, 0x71, 0x58, 0x69, 0xbe, 0xd1, 0x2d, 0x1c, 0xbf, 0x26, 0x79, 0x8e, 0x3f, 0x6b, 0x6c, 0xa1, 0x3f, 0xeb, 0xbd, 0x5b, 0x3e, 0xc8, 0x26, 0xf4, 0x3e, 0x3c, 0x01, 0x82, 0xbf, 0x5e, 0xe6, 0x65, 0xbe, 0x4a, 0x41, 0xbf, 0xbe, 0xf3, 0x19, 0x61, 0x3f, 0xab, 0xdf, 0xd1, 0x3f, 0x92, 0xfd, 0xff, 0xff, 0x04, 0x00, 0x00, 0x00, 0x00, 0x02, 0x00, 0x00, 0xf0, 0x53, 0x2c, 0xbe, 0x84, 0x6e, 0xdc, 0xbe, 0x40, 0x03, 0xca, 0x3d, 0xc0, 0x66, 0x16, 0x3e, 0xf8, 0x0c, 0x81, 0x3e, 0xf4, 0xe9, 0xe2, 0xbe, 0xc0, 0xa9, 0x01, 0xbd, 0x8c, 0xdb, 0xa5, 0xbe, 0x90, 0x2e, 0x6a, 0xbe, 0x50, 0x89, 0x5c, 0x3e, 0x30, 0x6e, 0x96, 0xbe, 0x80, 0xc8, 0x2d, 0x3e, 0x20, 0x1a, 0x3b, 0x3d, 0x00, 0xea, 0x0c, 0xbe, 0xb0, 0xf9, 0x0b, 0xbe, 0x00, 0xac, 0xf7, 0xbd, 0x00, 0x47, 0xbc, 0xbb, 0x3b, 0x95, 0x4b, 0x3e, 0xfa, 0x60, 0x00, 0xbf, 0xd8, 0xde, 0x18, 0xbe, 0x49, 0x6a, 0x6d, 0x3e, 0xf1, 0xf4, 0x83, 0xbd, 0x04, 0x41, 0x96, 0xbe, 0x30, 0x0f, 0x12, 0x3e, 0xc0, 0xdd, 0x51, 0xbe, 0x10, 0xd0, 0x85, 0xbd, 0xe8, 0xcd, 0x39, 0x3e, 0xd7, 0x0e, 0xc0, 0xbe, 0x80, 0x59, 0x03, 0xbc, 0xbe, 0xd1, 0x52, 0xbc, 0x18, 0x9a, 0x3f, 0x3e, 0x1e, 0x50, 0x6e, 0xbe, 0x7a, 0x53, 0xa3, 0x3d, 0xec, 0x9a, 0x84, 0x3f, 0x40, 0x5b, 0x3e, 0x3f, 0xe5, 0xee, 0xeb, 0xbe, 0x5d, 0x9a, 0xbd, 0x3e, 0x4c, 0xd3, 0x97, 0xbf, 0xe0, 0x47, 0xa6, 0xbe, 0xc4, 0x82, 0xc5, 0x3d, 0x54, 0x87, 0xdf, 0xbe, 0xc0, 0x4e, 0xd2, 0x3e, 0x3d, 0x91, 0x90, 0xbe, 0x4a, 0xe6, 0xca, 0x3f, 0xc8, 0x34, 0x91, 0xbe, 0xc4, 0x15, 0xac, 0xbf, 0x18, 0x6e, 0x5d, 0x3e, 0x08, 0xe1, 0x68, 0x3f, 0xc8, 0x4c, 0xa9, 0x3e, 0xf3, 0xc2, 0xaf, 0xbe, 0x77, 0x15, 0x4d, 0xbe, 0x9c, 0xb4, 0xf6, 0x3e, 0x14, 0x83, 0xce, 0x3e, 0xc4, 0x84, 0x9c, 0xbe, 0x2b, 0x21, 0x0f, 0x3e, 0xc2, 0x52, 0xed, 0x3e, 0xb0, 0xcd, 0xb9, 0xbd, 0xb8, 0xc6, 0x5d, 0x3e, 0x08, 0xdf, 0x5e, 0x3e, 0x30, 0x41, 0x19, 0xbe, 0x2d, 0x16, 0xe9, 0x3d, 0x1a, 0x36, 0xfd, 0xbe, 0x20, 0x3a, 0xcd, 0x3e, 0xfd, 0xed, 0xd6, 0xbe, 0x6c, 0x75, 0xc4, 0x3e, 0x49, 0x7d, 0x65, 0xbe, 0x06, 0x7d, 0x06, 0xbe, 0x7c, 0xe0, 0xd2, 0xbe, 0x02, 0x20, 0x32, 0x3e, 0xb0, 0x65, 0x5e, 0x3e, 0xf0, 0xc7, 0xf0, 0xbe, 0x10, 0x64, 0x8a, 0xbe, 0x30, 0x09, 0x0a, 0x3e, 0x00, 0x64, 0xc9, 0x3d, 0xd6, 0x24, 0x12, 0x3c, 0x99, 0x61, 0xd3, 0x3e, 0x64, 0x55, 0xf7, 0xbe, 0x5c, 0x35, 0x88, 0xbe, 0xf0, 0x58, 0x37, 0xbe, 0xdb, 0xb3, 0x59, 0xbe, 0xe2, 0xdf, 0x95, 0xbe, 0x69, 0xb9, 0x8e, 0xbe, 0x65, 0xf5, 0xa7, 0xbf, 0xdf, 0xe8, 0xe0, 0xbe, 0x55, 0xaa, 0xa7, 0x3f, 0x08, 0xba, 0x0f, 0x3f, 0x17, 0x8b, 0x84, 0x3e, 0x99, 0x2b, 0x87, 0x3f, 0x60, 0x3b, 0x63, 0xbe, 0x40, 0x27, 0xb0, 0x3d, 0x46, 0xf5, 0x71, 0x3e, 0x4a, 0x51, 0x41, 0xbf, 0x8b, 0x73, 0xb4, 0xbe, 0x6b, 0x14, 0xe2, 0x3f, 0x80, 0x80, 0x35, 0xbd, 0xed, 0xdf, 0x1b, 0xbe, 0x15, 0x9e, 0xc4, 0xbe, 0x2f, 0x92, 0xf2, 0xbe, 0x77, 0x9e, 0x35, 0xbf, 0x96, 0xba, 0xd7, 0xbe, 0x24, 0xb0, 0x46, 0x3f, 0x65, 0xaa, 0xf2, 0x3e, 0xeb, 0x22, 0x18, 0xbe, 0x74, 0xa7, 0x46, 0x3f, 0x40, 0x57, 0xdd, 0x3c, 0x20, 0x8d, 0xd4, 0xbe, 0x30, 0x9f, 0x9b, 0xbe, 0xf6, 0x66, 0x07, 0x3f, 0x8f, 0x8e, 0x59, 0x3a, 0x87, 0x01, 0xe3, 0x3f, 0x10, 0x0b, 0xb8, 0xbd, 0x65, 0x24, 0xed, 0xbe, 0x79, 0xaa, 0x42, 0xbe, 0xec, 0x50, 0x7f, 0x3e, 0x24, 0xc8, 0xfc, 0x3e, 0x80, 0xc7, 0xb2, 0x3f, 0x96, 0x56, 0xc6, 0xbf, 0xc9, 0x62, 0x89, 0x3f, 0x2d, 0x4c, 0xb4, 0x3f, 0xee, 0x1d, 0x74, 0x3f, 0x34, 0x91, 0xe2, 0x3e, 0x40, 0x9d, 0x46, 0x3e, 0xa3, 0x32, 0xbb, 0x3f, 0x27, 0x05, 0xf9, 0xbe, 0xb5, 0xde, 0xc4, 0x3f, 0xb4, 0xf4, 0x34, 0xbe, 0x68, 0x90, 0x52, 0xbe, 0x15, 0x20, 0x3f, 0x3f, 0x9e, 0xff, 0xff, 0xff, 0x04, 0x00, 0x00, 0x00, 0x40, 0x00, 0x00, 0x00, 0x3b, 0xf4, 0x05, 0xbf, 0xf4, 0x0c, 0xad, 0x3e, 0x18, 0x45, 0xae, 0xbf, 0x10, 0x84, 0xd7, 0x3e, 0x8b, 0x84, 0x3b, 0x3f, 0x24, 0x69, 0x59, 0xbf, 0x26, 0xe1, 0x9f, 0xbf, 0x37, 0x8d, 0xea, 0x3f, 0x33, 0x71, 0xa4, 0xbe, 0xde, 0x21, 0x94, 0x3d, 0xcd, 0x5d, 0xa9, 0x3f, 0x03, 0x62, 0x15, 0x3f, 0x3d, 0x7a, 0x2c, 0x3f, 0xea, 0x88, 0x4b, 0xc0, 0xc0, 0x4e, 0x07, 0xc0, 0x8f, 0x8b, 0x5c, 0x3e, 0xea, 0xff, 0xff, 0xff, 0x04, 0x00, 0x00, 0x00, 0x08, 0x00, 0x00, 0x00, 0x5c, 0x27, 0x2b, 0xbf, 0x52, 0x49, 0x20, 0xbf, 0x00, 0x00, 0x06, 0x00, 0x08, 0x00, 0x04, 0x00, 0x06, 0x00, 0x00, 0x00, 0x04, 0x00, 0x00, 0x00, 0x20, 0x00, 0x00, 0x00, 0x00, 0x00, 0x00, 0x00, 0x3f, 0xf3, 0x8c, 0xbd, 0xa5, 0x80, 0xaf, 0x3e, 0x6d, 0xa0, 0x30, 0xbc, 0x78, 0x24, 0x38, 0xbd, 0x77, 0x62, 0x30, 0x3f, 0x9e, 0x27, 0x57, 0x3f, 0xed, 0x2d, 0xc9, 0xbe, 0x28, 0xfa, 0xff, 0xff, 0x2c, 0xfa, 0xff, 0xff, 0x0f, 0x00, 0x00, 0x00, 0x4d, 0x4c, 0x49, 0x52, 0x20, 0x43, 0x6f, 0x6e, 0x76, 0x65, 0x72, 0x74, 0x65, 0x64, 0x2e, 0x00, 0x01, 0x00, 0x00, 0x00, 0x14, 0x00, 0x00, 0x00, 0x00, 0x00, 0x0e, 0x00, 0x18, 0x00, 0x14, 0x00, 0x10, 0x00, 0x0c, 0x00, 0x08, 0x00, 0x04, 0x00, 0x0e, 0x00, 0x00, 0x00, 0x14, 0x00, 0x00, 0x00, 0x1c, 0x00, 0x00, 0x00, 0x18, 0x01, 0x00, 0x00, 0x1c, 0x01, 0x00, 0x00, 0x20, 0x01, 0x00, 0x00, 0x04, 0x00, 0x00, 0x00, 0x6d, 0x61, 0x69, 0x6e, 0x00, 0x00, 0x00, 0x00, 0x04, 0x00, 0x00, 0x00, 0xc0, 0x00, 0x00, 0x00, 0x78, 0x00, 0x00, 0x00, 0x34, 0x00, 0x00, 0x00, 0x10, 0x00, 0x00, 0x00, 0x00, 0x00, 0x0a, 0x00, 0x10, 0x00, 0x0c, 0x00, 0x08, 0x00, 0x04, 0x00, 0x0a, 0x00, 0x00, 0x00, 0x0c, 0x00, 0x00, 0x00, 0x10, 0x00, 0x00, 0x00, 0x01, 0x00, 0x00, 0x00, 0x01, 0x00, 0x00, 0x00, 0x0a, 0x00, 0x00, 0x00, 0x01, 0x00, 0x00, 0x00, 0x09, 0x00, 0x00, 0x00, 0xce, 0xff, 0xff, 0xff, 0x10, 0x00, 0x00, 0x00, 0x00, 0x00, 0x00, 0x08, 0x0c, 0x00, 0x00, 0x00, 0x10, 0x00, 0x00, 0x00, 0xd4, 0xfa, 0xff, 0xff, 0x01, 0x00, 0x00, 0x00, 0x09, 0x00, 0x00, 0x00, 0x03, 0x00, 0x00, 0x00, 0x08, 0x00, 0x00, 0x00, 0x03, 0x00, 0x00, 0x00, 0x02, 0x00, 0x00, 0x00, 0x00, 0x00, 0x0e, 0x00, 0x14, 0x00, 0x00, 0x00, 0x10, 0x00, 0x0c, 0x00, 0x0b, 0x00, 0x04, 0x00, 0x0e, 0x00, 0x00, 0x00, 0x10, 0x00, 0x00, 0x00, 0x00, 0x00, 0x00, 0x08, 0x10, 0x00, 0x00, 0x00, 0x14, 0x00, 0x00, 0x00, 0xba, 0xff, 0xff, 0xff, 0x00, 0x00, 0x00, 0x01, 0x01, 0x00, 0x00, 0x00, 0x08, 0x00, 0x00, 0x00, 0x03, 0x00, 0x00, 0x00, 0x07, 0x00, 0x00, 0x00, 0x04, 0x00, 0x00, 0x00, 0x01, 0x00, 0x00, 0x00, 0x00, 0x00, 0x0e, 0x00, 0x16, 0x00, 0x00, 0x00, 0x10, 0x00, 0x0c, 0x00, 0x0b, 0x00, 0x04, 0x00, 0x0e, 0x00, 0x00, 0x00, 0x18, 0x00, 0x00, 0x00, 0x00, 0x00, 0x00, 0x08, 0x18, 0x00, 0x00, 0x00, 0x1c, 0x00, 0x00, 0x00, 0x00, 0x00, 0x06, 0x00, 0x08, 0x00, 0x07, 0x00, 0x06, 0x00, 0x00, 0x00, 0x00, 0x00, 0x00, 0x01, 0x01, 0x00, 0x00, 0x00, 0x07, 0x00, 0x00, 0x00, 0x03, 0x00, 0x00, 0x00, 0x00, 0x00, 0x00, 0x00, 0x05, 0x00, 0x00, 0x00, 0x06, 0x00, 0x00, 0x00, 0x01, 0x00, 0x00, 0x00, 0x0a, 0x00, 0x00, 0x00, 0x01, 0x00, 0x00, 0x00, 0x00, 0x00, 0x00, 0x00, 0x0b, 0x00, 0x00, 0x00, 0x44, 0x04, 0x00, 0x00, 0xc4, 0x03, 0x00, 0x00, 0x60, 0x03, 0x00, 0x00, 0x10, 0x03, 0x00, 0x00, 0xc0, 0x02, 0x00, 0x00, 0x74, 0x02, 0x00, 0x00, 0x10, 0x02, 0x00, 0x00, 0x7c, 0x01, 0x00, 0x00, 0xe0, 0x00, 0x00, 0x00, 0x60, 0x00, 0x00, 0x00, 0x04, 0x00, 0x00, 0x00, 0xfe, 0xfb, 0xff, 0xff, 0x00, 0x00, 0x00, 0x01, 0x14, 0x00, 0x00, 0x00, 0x1c, 0x00, 0x00, 0x00, 0x1c, 0x00, 0x00, 0x00, 0x0b, 0x00, 0x00, 0x00, 0x34, 0x00, 0x00, 0x00, 0x02, 0x00, 0x00, 0x00, 0xff, 0xff, 0xff, 0xff, 0x02, 0x00, 0x00, 0x00, 0xe8, 0xfb, 0xff, 0xff, 0x1b, 0x00, 0x00, 0x00, 0x53, 0x74, 0x61, 0x74, 0x65, 0x66, 0x75, 0x6c, 0x50, 0x61, 0x72, 0x74, 0x69, 0x74, 0x69, 0x6f, 0x6e, 0x65, 0x64, 0x43, 0x61, 0x6c, 0x6c, 0x5f, 0x31, 0x3a, 0x30, 0x00, 0x02, 0x00, 0x00, 0x00, 0x01, 0x00, 0x00, 0x00, 0x02, 0x00, 0x00, 0x00, 0x56, 0xfc, 0xff, 0xff, 0x00, 0x00, 0x00, 0x01, 0x14, 0x00, 0x00, 0x00, 0x1c, 0x00, 0x00, 0x00, 0x1c, 0x00, 0x00, 0x00, 0x0a, 0x00, 0x00, 0x00, 0x58, 0x00, 0x00, 0x00, 0x02, 0x00, 0x00, 0x00, 0xff, 0xff, 0xff, 0xff, 0x02, 0x00, 0x00, 0x00, 0x40, 0xfc, 0xff, 0xff, 0x3c, 0x00, 0x00, 0x00, 0x73, 0x65, 0x71, 0x75, 0x65, 0x6e, 0x74, 0x69, 0x61, 0x6c, 0x5f, 0x31, 0x2f, 0x64, 0x65, 0x6e, 0x73, 0x65, 0x5f, 0x32, 0x5f, 0x31, 0x2f, 0x4d, 0x61, 0x74, 0x4d, 0x75, 0x6c, 0x3b, 0x73, 0x65, 0x71, 0x75, 0x65, 0x6e, 0x74, 0x69, 0x61, 0x6c, 0x5f, 0x31, 0x2f, 0x64, 0x65, 0x6e, 0x73, 0x65, 0x5f, 0x32, 0x5f, 0x31, 0x2f, 0x42, 0x69, 0x61, 0x73, 0x41, 0x64, 0x64, 0x00, 0x00, 0x00, 0x00, 0x02, 0x00, 0x00, 0x00, 0x01, 0x00, 0x00, 0x00, 0x02, 0x00, 0x00, 0x00, 0xd2, 0xfc, 0xff, 0xff, 0x00, 0x00, 0x00, 0x01, 0x14, 0x00, 0x00, 0x00, 0x1c, 0x00, 0x00, 0x00, 0x1c, 0x00, 0x00, 0x00, 0x09, 0x00, 0x00, 0x00, 0x74, 0x00, 0x00, 0x00, 0x02, 0x00, 0x00, 0x00, 0xff, 0xff, 0xff, 0xff, 0x08, 0x00, 0x00, 0x00, 0xbc, 0xfc, 0xff, 0xff, 0x58, 0x00, 0x00, 0x00, 0x73, 0x65, 0x71, 0x75, 0x65, 0x6e, 0x74, 0x69, 0x61, 0x6c, 0x5f, 0x31, 0x2f, 0x64, 0x65, 0x6e, 0x73, 0x65, 0x5f, 0x31, 0x5f, 0x32, 0x2f, 0x4d, 0x61, 0x74, 0x4d, 0x75, 0x6c, 0x3b, 0x73, 0x65, 0x71, 0x75, 0x65, 0x6e, 0x74, 0x69, 0x61, 0x6c, 0x5f, 0x31, 0x2f, 0x64, 0x65, 0x6e, 0x73, 0x65, 0x5f, 0x31, 0x5f, 0x32, 0x2f, 0x52, 0x65, 0x6c, 0x75, 0x3b, 0x73, 0x65, 0x71, 0x75, 0x65, 0x6e, 0x74, 0x69, 0x61, 0x6c, 0x5f, 0x31, 0x2f, 0x64, 0x65, 0x6e, 0x73, 0x65, 0x5f, 0x31, 0x5f, 0x32, 0x2f, 0x42, 0x69, 0x61, 0x73, 0x41, 0x64, 0x64, 0x00, 0x00, 0x00, 0x00, 0x02, 0x00, 0x00, 0x00, 0x01, 0x00, 0x00, 0x00, 0x08, 0x00, 0x00, 0x00, 0x6a, 0xfd, 0xff, 0xff, 0x00, 0x00, 0x00, 0x01, 0x14, 0x00, 0x00, 0x00, 0x1c, 0x00, 0x00, 0x00, 0x1c, 0x00, 0x00, 0x00, 0x08, 0x00, 0x00, 0x00, 0x6c, 0x00, 0x00, 0x00, 0x02, 0x00, 0x00, 0x00, 0xff, 0xff, 0xff, 0xff, 0x10, 0x00, 0x00, 0x00, 0x54, 0xfd, 0xff, 0xff, 0x52, 0x00, 0x00, 0x00, 0x73, 0x65, 0x71, 0x75, 0x65, 0x6e, 0x74, 0x69, 0x61, 0x6c, 0x5f, 0x31, 0x2f, 0x64, 0x65, 0x6e, 0x73, 0x65, 0x5f, 0x31, 0x2f, 0x4d, 0x61, 0x74, 0x4d, 0x75, 0x6c, 0x3b, 0x73, 0x65, 0x71, 0x75, 0x65, 0x6e, 0x74, 0x69, 0x61, 0x6c, 0x5f, 0x31, 0x2f, 0x64, 0x65, 0x6e, 0x73, 0x65, 0x5f, 0x31, 0x2f, 0x52, 0x65, 0x6c, 0x75, 0x3b, 0x73, 0x65, 0x71, 0x75, 0x65, 0x6e, 0x74, 0x69, 0x61, 0x6c, 0x5f, 0x31, 0x2f, 0x64, 0x65, 0x6e, 0x73, 0x65, 0x5f, 0x31, 0x2f, 0x42, 0x69, 0x61, 0x73, 0x41, 0x64, 0x64, 0x00, 0x00, 0x02, 0x00, 0x00, 0x00, 0x01, 0x00, 0x00, 0x00, 0x10, 0x00, 0x00, 0x00, 0x76, 0xfe, 0xff, 0xff, 0x00, 0x00, 0x00, 0x01, 0x10, 0x00, 0x00, 0x00, 0x10, 0x00, 0x00, 0x00, 0x07, 0x00, 0x00, 0x00, 0x44, 0x00, 0x00, 0x00, 0xd4, 0xfd, 0xff, 0xff, 0x36, 0x00, 0x00, 0x00, 0x73, 0x65, 0x71, 0x75, 0x65, 0x6e, 0x74, 0x69, 0x61, 0x6c, 0x5f, 0x31, 0x2f, 0x64, 0x65, 0x6e, 0x73, 0x65, 0x5f, 0x31, 0x2f, 0x52, 0x65, 0x6c, 0x75, 0x3b, 0x73, 0x65, 0x71, 0x75, 0x65, 0x6e, 0x74, 0x69, 0x61, 0x6c, 0x5f, 0x31, 0x2f, 0x64, 0x65, 0x6e, 0x73, 0x65, 0x5f, 0x31, 0x2f, 0x42, 0x69, 0x61, 0x73, 0x41, 0x64, 0x64, 0x00, 0x00, 0x01, 0x00, 0x00, 0x00, 0x10, 0x00, 0x00, 0x00, 0xd6, 0xfe, 0xff, 0xff, 0x00, 0x00, 0x00, 0x01, 0x10, 0x00, 0x00, 0x00, 0x10, 0x00, 0x00, 0x00, 0x06, 0x00, 0x00, 0x00, 0x28, 0x00, 0x00, 0x00, 0x34, 0xfe, 0xff, 0xff, 0x1b, 0x00, 0x00, 0x00, 0x73, 0x65, 0x71, 0x75, 0x65, 0x6e, 0x74, 0x69, 0x61, 0x6c, 0x5f, 0x31, 0x2f, 0x64, 0x65, 0x6e, 0x73, 0x65, 0x5f, 0x31, 0x2f, 0x4d, 0x61, 0x74, 0x4d, 0x75, 0x6c, 0x00, 0x02, 0x00, 0x00, 0x00, 0x10, 0x00, 0x00, 0x00, 0x02, 0x00, 0x00, 0x00, 0x1e, 0xff, 0xff, 0xff, 0x00, 0x00, 0x00, 0x01, 0x10, 0x00, 0x00, 0x00, 0x10, 0x00, 0x00, 0x00, 0x05, 0x00, 0x00, 0x00, 0x2c, 0x00, 0x00, 0x00, 0x7c, 0xfe, 0xff, 0xff, 0x1d, 0x00, 0x00, 0x00, 0x73, 0x65, 0x71, 0x75, 0x65, 0x6e, 0x74, 0x69, 0x61, 0x6c, 0x5f, 0x31, 0x2f, 0x64, 0x65, 0x6e, 0x73, 0x65, 0x5f, 0x31, 0x5f, 0x32, 0x2f, 0x4d, 0x61, 0x74, 0x4d, 0x75, 0x6c, 0x00, 0x00, 0x00, 0x02, 0x00, 0x00, 0x00, 0x08, 0x00, 0x00, 0x00, 0x10, 0x00, 0x00, 0x00, 0x6a, 0xff, 0xff, 0xff, 0x00, 0x00, 0x00, 0x01, 0x10, 0x00, 0x00, 0x00, 0x10, 0x00, 0x00, 0x00, 0x04, 0x00, 0x00, 0x00, 0x2c, 0x00, 0x00, 0x00, 0xc8, 0xfe, 0xff, 0xff, 0x1d, 0x00, 0x00, 0x00, 0x73, 0x65, 0x71, 0x75, 0x65, 0x6e, 0x74, 0x69, 0x61, 0x6c, 0x5f, 0x31, 0x2f, 0x64, 0x65, 0x6e, 0x73, 0x65, 0x5f, 0x32, 0x5f, 0x31, 0x2f, 0x4d, 0x61, 0x74, 0x4d, 0x75, 0x6c, 0x00, 0x00, 0x00, 0x02, 0x00, 0x00, 0x00, 0x02, 0x00, 0x00, 0x00, 0x08, 0x00, 0x00, 0x00, 0xb6, 0xff, 0xff, 0xff, 0x00, 0x00, 0x00, 0x01, 0x10, 0x00, 0x00, 0x00, 0x10, 0x00, 0x00, 0x00, 0x03, 0x00, 0x00, 0x00, 0x2c, 0x00, 0x00, 0x00, 0x14, 0xff, 0xff, 0xff, 0x1e, 0x00, 0x00, 0x00, 0x73, 0x65, 0x71, 0x75, 0x65, 0x6e, 0x74, 0x69, 0x61, 0x6c, 0x5f, 0x31, 0x2f, 0x64, 0x65, 0x6e, 0x73, 0x65, 0x5f, 0x32, 0x5f, 0x31, 0x2f, 0x42, 0x69, 0x61, 0x73, 0x41, 0x64, 0x64, 0x00, 0x00, 0x01, 0x00, 0x00, 0x00, 0x02, 0x00, 0x00, 0x00, 0x00, 0x00, 0x16, 0x00, 0x18, 0x00, 0x14, 0x00, 0x00, 0x00, 0x10, 0x00, 0x0c, 0x00, 0x08, 0x00, 0x00, 0x00, 0x00, 0x00, 0x00, 0x00, 0x07, 0x00, 0x16, 0x00, 0x00, 0x00, 0x00, 0x00, 0x00, 0x01, 0x10, 0x00, 0x00, 0x00, 0x10, 0x00, 0x00, 0x00, 0x02, 0x00, 0x00, 0x00, 0x48, 0x00, 0x00, 0x00, 0x74, 0xff, 0xff, 0xff, 0x3a, 0x00, 0x00, 0x00, 0x73, 0x65, 0x71, 0x75, 0x65, 0x6e, 0x74, 0x69, 0x61, 0x6c, 0x5f, 0x31, 0x2f, 0x64, 0x65, 0x6e, 0x73, 0x65, 0x5f, 0x31, 0x5f, 0x32, 0x2f, 0x52, 0x65, 0x6c, 0x75, 0x3b, 0x73, 0x65, 0x71, 0x75, 0x65, 0x6e, 0x74, 0x69, 0x61, 0x6c, 0x5f, 0x31, 0x2f, 0x64, 0x65, 0x6e, 0x73, 0x65, 0x5f, 0x31, 0x5f, 0x32, 0x2f, 0x42, 0x69, 0x61, 0x73, 0x41, 0x64, 0x64, 0x00, 0x00, 0x01, 0x00, 0x00, 0x00, 0x08, 0x00, 0x00, 0x00, 0x00, 0x00, 0x16, 0x00, 0x1c, 0x00, 0x18, 0x00, 0x00, 0x00, 0x14, 0x00, 0x10, 0x00, 0x0c, 0x00, 0x00, 0x00, 0x00, 0x00, 0x08, 0x00, 0x07, 0x00, 0x16, 0x00, 0x00, 0x00, 0x00, 0x00, 0x00, 0x01, 0x14, 0x00, 0x00, 0x00, 0x20, 0x00, 0x00, 0x00, 0x20, 0x00, 0x00, 0x00, 0x01, 0x00, 0x00, 0x00, 0x3c, 0x00, 0x00, 0x00, 0x02, 0x00, 0x00, 0x00, 0xff, 0xff, 0xff, 0xff, 0x02, 0x00, 0x00, 0x00, 0x04, 0x00, 0x04, 0x00, 0x04, 0x00, 0x00, 0x00, 0x1e, 0x00, 0x00, 0x00, 0x73, 0x65, 0x72, 0x76, 0x69, 0x6e, 0x67, 0x5f, 0x64, 0x65, 0x66, 0x61, 0x75, 0x6c, 0x74, 0x5f, 0x6b, 0x65, 0x72, 0x61, 0x73, 0x5f, 0x74, 0x65, 0x6e, 0x73, 0x6f, 0x72, 0x3a, 0x30, 0x00, 0x00, 0x02, 0x00, 0x00, 0x00, 0x01, 0x00, 0x00, 0x00, 0x02, 0x00, 0x00, 0x00, 0x02, 0x00, 0x00, 0x00, 0x20, 0x00, 0x00, 0x00, 0x04, 0x00, 0x00, 0x00, 0xf4, 0xff, 0xff, 0xff, 0x0e, 0x00, 0x00, 0x00, 0x00, 0x00, 0x00, 0x0e, 0x0c, 0x00, 0x0c, 0x00, 0x0b, 0x00, 0x00, 0x00, 0x00, 0x00, 0x04, 0x00, 0x0c, 0x00, 0x00, 0x00, 0x09, 0x00, 0x00, 0x00, 0x00, 0x00, 0x00, 0x09 };
const unsigned int smart_env_model_tflite_len = 2968;
