const unsigned char smart_env_model_tflite[] = {
  0x1c, 0x00, 0x00, 0x00, 0x54, 0x46, 0x4c, 0x33, 0x14, 0x00, 0x20, 0x00,
  0x1c, 0x00, 0x18, 0x00, 0x14, 0x00, 0x10, 0x00, 0x0c, 0x00, 0x00, 0x00,
  0x08, 0x00, 0x04, 0x00, 0x14, 0x00, 0x00, 0x00, 0x1c, 0x00, 0x00, 0x00,
  0x98, 0x00, 0x00, 0x00, 0xf0, 0x00, 0x00, 0x00, 0x9c, 0x0c, 0x00, 0x00,
  0xac, 0x0c, 0x00, 0x00, 0xb8, 0x12, 0x00, 0x00, 0x03, 0x00, 0x00, 0x00,
  0x01, 0x00, 0x00, 0x00, 0x10, 0x00, 0x00, 0x00, 0x00, 0x00, 0x0a, 0x00,
  0x10, 0x00, 0x0c, 0x00, 0x08, 0x00, 0x04, 0x00, 0x0a, 0x00, 0x00, 0x00,
  0x0c, 0x00, 0x00, 0x00, 0x1c, 0x00, 0x00, 0x00, 0x3c, 0x00, 0x00, 0x00,
  0x0f, 0x00, 0x00, 0x00, 0x73, 0x65, 0x72, 0x76, 0x69, 0x6e, 0x67, 0x5f,
  0x64, 0x65, 0x66, 0x61, 0x75, 0x6c, 0x74, 0x00, 0x01, 0x00, 0x00, 0x00,
  0x04, 0x00, 0x00, 0x00, 0x90, 0xff, 0xff, 0xff, 0x0a, 0x00, 0x00, 0x00,
  0x04, 0x00, 0x00, 0x00, 0x08, 0x00, 0x00, 0x00, 0x6f, 0x75, 0x74, 0x70,
  0x75, 0x74, 0x5f, 0x30, 0x00, 0x00, 0x00, 0x00, 0x01, 0x00, 0x00, 0x00,
  0x04, 0x00, 0x00, 0x00, 0x4a, 0xf3, 0xff, 0xff, 0x04, 0x00, 0x00, 0x00,
  0x0c, 0x00, 0x00, 0x00, 0x6b, 0x65, 0x72, 0x61, 0x73, 0x5f, 0x74, 0x65,
  0x6e, 0x73, 0x6f, 0x72, 0x00, 0x00, 0x00, 0x00, 0x02, 0x00, 0x00, 0x00,
  0x34, 0x00, 0x00, 0x00, 0x04, 0x00, 0x00, 0x00, 0xdc, 0xff, 0xff, 0xff,
  0x0d, 0x00, 0x00, 0x00, 0x04, 0x00, 0x00, 0x00, 0x13, 0x00, 0x00, 0x00,
  0x43, 0x4f, 0x4e, 0x56, 0x45, 0x52, 0x53, 0x49, 0x4f, 0x4e, 0x5f, 0x4d,
  0x45, 0x54, 0x41, 0x44, 0x41, 0x54, 0x41, 0x00, 0x08, 0x00, 0x0c, 0x00,
  0x08, 0x00, 0x04, 0x00, 0x08, 0x00, 0x00, 0x00, 0x0c, 0x00, 0x00, 0x00,
  0x04, 0x00, 0x00, 0x00, 0x13, 0x00, 0x00, 0x00, 0x6d, 0x69, 0x6e, 0x5f,
  0x72, 0x75, 0x6e, 0x74, 0x69, 0x6d, 0x65, 0x5f, 0x76, 0x65, 0x72, 0x73,
  0x69, 0x6f, 0x6e, 0x00, 0x0e, 0x00, 0x00, 0x00, 0xa8, 0x0b, 0x00, 0x00,
  0xa0, 0x0b, 0x00, 0x00, 0x50, 0x0b, 0x00, 0x00, 0x34, 0x0b, 0x00, 0x00,
  0x64, 0x0a, 0x00, 0x00, 0x54, 0x02, 0x00, 0x00, 0x44, 0x01, 0x00, 0x00,
  0xb4, 0x00, 0x00, 0x00, 0xac, 0x00, 0x00, 0x00, 0xa4, 0x00, 0x00, 0x00,
  0x9c, 0x00, 0x00, 0x00, 0x94, 0x00, 0x00, 0x00, 0x74, 0x00, 0x00, 0x00,
  0x04, 0x00, 0x00, 0x00, 0xfe, 0xf3, 0xff, 0xff, 0x04, 0x00, 0x00, 0x00,
  0x60, 0x00, 0x00, 0x00, 0x0c, 0x00, 0x00, 0x00, 0x08, 0x00, 0x0e, 0x00,
  0x08, 0x00, 0x04, 0x00, 0x08, 0x00, 0x00, 0x00, 0x10, 0x00, 0x00, 0x00,
  0x28, 0x00, 0x00, 0x00, 0x00, 0x00, 0x06, 0x00, 0x08, 0x00, 0x04, 0x00,
  0x06, 0x00, 0x00, 0x00, 0x04, 0x00, 0x00, 0x00, 0x01, 0x00, 0x00, 0x00,
  0xea, 0x03, 0x00, 0x00, 0x0c, 0x00, 0x18, 0x00, 0x14, 0x00, 0x10, 0x00,
  0x0c, 0x00, 0x04, 0x00, 0x0c, 0x00, 0x00, 0x00, 0xef, 0x2d, 0xc9, 0xd7,
  0x9e, 0xb4, 0x61, 0x69, 0x02, 0x00, 0x00, 0x00, 0x02, 0x00, 0x00, 0x00,
  0x04, 0x00, 0x00, 0x00, 0x06, 0x00, 0x00, 0x00, 0x32, 0x2e, 0x32, 0x31,
  0x2e, 0x30, 0x00, 0x00, 0x6a, 0xf4, 0xff, 0xff, 0x04, 0x00, 0x00, 0x00,
  0x10, 0x00, 0x00, 0x00, 0x31, 0x2e, 0x35, 0x2e, 0x30, 0x00, 0x00, 0x00,
  0x00, 0x00, 0x00, 0x00, 0x00, 0x00, 0x00, 0x00, 0x28, 0xef, 0xff, 0xff,
  0x2c, 0xef, 0xff, 0xff, 0x30, 0xef, 0xff, 0xff, 0x34, 0xef, 0xff, 0xff,
  0x96, 0xf4, 0xff, 0xff, 0x04, 0x00, 0x00, 0x00, 0x80, 0x00, 0x00, 0x00,
  0x00, 0x00, 0x00, 0x00, 0x00, 0x00, 0x00, 0x00, 0xe5, 0x2f, 0x61, 0x3b,
  0x00, 0x00, 0x00, 0x00, 0x14, 0xea, 0x63, 0xbe, 0x00, 0x00, 0x00, 0x00,
  0xf2, 0x78, 0xc7, 0x3e, 0x80, 0x16, 0x14, 0xbe, 0x65, 0xec, 0xc9, 0x3e,
  0x00, 0x00, 0x00, 0x00, 0x34, 0xf0, 0x34, 0xbe, 0x00, 0x00, 0x00, 0x00,
  0x1f, 0xa9, 0xa5, 0x3e, 0x44, 0xac, 0x98, 0xbd, 0xda, 0x2f, 0x00, 0xbe,
  0xa8, 0x45, 0xc0, 0xbd, 0x00, 0x00, 0x00, 0x00, 0x00, 0x00, 0x00, 0x00,
  0x00, 0x00, 0x00, 0x00, 0x00, 0x00, 0x00, 0x00, 0x00, 0x00, 0x00, 0x00,
  0x83, 0xf2, 0x21, 0x3c, 0x00, 0x00, 0x00, 0x00, 0xcf, 0xc5, 0x7e, 0x3e,
  0x00, 0x00, 0x00, 0x00, 0x10, 0x07, 0xec, 0x3d, 0x00, 0x00, 0x00, 0x00,
  0x00, 0x00, 0x00, 0x00, 0xcc, 0x75, 0x65, 0x3e, 0x00, 0x00, 0x00, 0x00,
  0x00, 0x00, 0x00, 0x00, 0x00, 0x00, 0x00, 0x00, 0x22, 0xf5, 0xff, 0xff,
  0x04, 0x00, 0x00, 0x00, 0x00, 0x01, 0x00, 0x00, 0xfc, 0x06, 0xa3, 0xbd,
  0xa0, 0xf2, 0x1b, 0x3c, 0x83, 0x87, 0xb8, 0xbe, 0x63, 0x48, 0xc1, 0xbe,
  0x20, 0x54, 0xf1, 0x3e, 0x66, 0x99, 0x90, 0xbe, 0x45, 0x64, 0x33, 0xbe,
  0x9c, 0x0e, 0xe3, 0xbd, 0x3d, 0x63, 0x16, 0xbd, 0xad, 0xfa, 0x48, 0x3f,
  0xe7, 0xc0, 0x84, 0xbe, 0x60, 0x0f, 0xd7, 0xbd, 0x3e, 0x6b, 0x9c, 0x3e,
  0x86, 0x2a, 0x08, 0xbf, 0x9f, 0xdb, 0x14, 0x3f, 0xed, 0x31, 0x3f, 0xbe,
  0xd7, 0x0f, 0x06, 0x3d, 0xee, 0xe8, 0x18, 0x3f, 0xb4, 0x59, 0x94, 0xbd,
  0xfb, 0xda, 0xce, 0xbe, 0x97, 0x20, 0x7f, 0xbe, 0xb1, 0xf7, 0x2b, 0x3f,
  0x60, 0xc5, 0xc0, 0xbc, 0x00, 0x5a, 0xd3, 0xbb, 0xe0, 0x19, 0x7f, 0xbe,
  0xd2, 0x3b, 0x0f, 0x3f, 0x32, 0x67, 0x33, 0x3f, 0x5b, 0x83, 0xab, 0xbe,
  0xfc, 0x60, 0x43, 0x3f, 0xeb, 0x52, 0xa4, 0xbe, 0x2f, 0xdd, 0x43, 0x3f,
  0x66, 0xed, 0x9f, 0xbe, 0xdb, 0xf0, 0xcb, 0xbe, 0x0a, 0x43, 0x8e, 0xbe,
  0xa4, 0x1c, 0xb0, 0xbe, 0x1d, 0x00, 0x3e, 0xbe, 0x70, 0x86, 0xe6, 0xbc,
  0x4f, 0xde, 0x61, 0xbe, 0xc8, 0x98, 0x82, 0xbe, 0x64, 0xfe, 0x89, 0xbd,
  0x38, 0x65, 0xb5, 0xbe, 0x60, 0x12, 0x0c, 0x3d, 0xc1, 0x70, 0x0c, 0x3f,
  0x49, 0xf2, 0x92, 0xbe, 0x33, 0xa4, 0xc8, 0xbe, 0x10, 0xa5, 0xb1, 0xbe,
  0x27, 0xfc, 0x46, 0x3f, 0x3d, 0x7d, 0x64, 0xbe, 0xa4, 0xac, 0x26, 0xbe,
  0x64, 0x74, 0x9e, 0xbe, 0xf4, 0xd0, 0x07, 0x3e, 0x24, 0xbd, 0x3c, 0x3f,
  0xde, 0x8c, 0x92, 0xbe, 0x6c, 0x73, 0x90, 0xbe, 0xf0, 0xe6, 0xaa, 0x3c,
  0x6b, 0xfa, 0xb0, 0xbe, 0xfa, 0x56, 0xe6, 0xbe, 0xcb, 0x05, 0x08, 0x3f,
  0x30, 0x10, 0xb2, 0xbc, 0x3e, 0x10, 0x13, 0xbe, 0x20, 0xb9, 0x5c, 0x3c,
  0x16, 0x4b, 0xb2, 0xbe, 0x90, 0xcc, 0x20, 0xbd, 0x5f, 0x66, 0x4a, 0xbe,
  0x2e, 0xf6, 0xff, 0xff, 0x04, 0x00, 0x00, 0x00, 0x00, 0x08, 0x00, 0x00,
  0x26, 0x95, 0xb4, 0xbe, 0xda, 0x67, 0x98, 0xbe, 0x05, 0x15, 0xd0, 0x3e,
  0x00, 0xaf, 0x96, 0x3c, 0x23, 0xc2, 0x93, 0x3e, 0xf0, 0xe9, 0xec, 0xbc,
  0xf6, 0x06, 0xc5, 0xbe, 0xb2, 0x5f, 0x4c, 0x3f, 0x16, 0x4c, 0x60, 0xbd,
  0x6d, 0xd6, 0xa5, 0x3e, 0x6d, 0xca, 0x00, 0x3f, 0x60, 0xda, 0x7c, 0xbc,
  0x34, 0x4b, 0x90, 0x3d, 0xc1, 0x21, 0x27, 0x3f, 0x11, 0x7d, 0x1d, 0x3f,
  0xd5, 0x8e, 0x29, 0x3f, 0x31, 0xc1, 0x9f, 0x3e, 0x80, 0x9d, 0x0b, 0xbd,
  0xe0, 0x84, 0x51, 0xbd, 0xaa, 0xd7, 0x2a, 0x3e, 0x38, 0x0c, 0x21, 0xbd,
  0x70, 0x4a, 0x0e, 0x3f, 0x38, 0xc0, 0xa4, 0x3d, 0x82, 0xfb, 0x39, 0x3d,
  0x64, 0x31, 0xeb, 0x3d, 0x8b, 0x9c, 0x7a, 0x3e, 0x41, 0x81, 0x33, 0xbe,
  0x3e, 0x6d, 0xa5, 0xbe, 0x70, 0x1b, 0x0f, 0xbf, 0x62, 0x37, 0x7b, 0x3e,
  0xb8, 0xfe, 0x08, 0x3d, 0x98, 0x3c, 0x61, 0xbd, 0xd0, 0x4e, 0xc6, 0x3d,
  0xea, 0xd0, 0x1b, 0x3e, 0x20, 0x55, 0x2c, 0x3c, 0xc4, 0xaf, 0x1b, 0xbe,
  0xa0, 0xf2, 0x00, 0xbc, 0x28, 0xc8, 0x78, 0xbe, 0x0c, 0x81, 0x95, 0xbe,
  0x46, 0x4d, 0x07, 0xbe, 0x20, 0xed, 0x2f, 0xbd, 0x38, 0x52, 0xa9, 0xbd,
  0x5a, 0xb1, 0x1c, 0x3e, 0x88, 0x36, 0x59, 0xbd, 0x98, 0xe1, 0x8d, 0x3d,
  0xdb, 0xf9, 0xaa, 0xbe, 0xf9, 0x9c, 0xae, 0x3e, 0x3e, 0x78, 0x93, 0xbe,
  0x2f, 0xfc, 0x8d, 0x3e, 0x6d, 0xca, 0x8e, 0xbe, 0x40, 0xb2, 0x04, 0x3e,
  0xed, 0xf1, 0xa7, 0x3e, 0x69, 0x99, 0x89, 0x3e, 0x00, 0x30, 0x26, 0xbb,
  0x00, 0x2f, 0x89, 0xbe, 0x7c, 0xa6, 0x89, 0xbd, 0x7f, 0x0d, 0xa9, 0xbe,
  0xc0, 0x89, 0x56, 0x3c, 0xfb, 0x88, 0x02, 0xbe, 0xf6, 0x0e, 0x4e, 0x3e,
  0x9e, 0x56, 0x81, 0xbe, 0x0e, 0xe7, 0x56, 0x3e, 0xb0, 0xd1, 0xcd, 0xbc,
  0x25, 0x01, 0xab, 0x3e, 0x78, 0x59, 0xbb, 0x3d, 0x7e, 0x81, 0x35, 0x3e,
  0xf2, 0x08, 0x30, 0x3e, 0xbb, 0x5b, 0x5e, 0xbe, 0x1c, 0xe4, 0x84, 0x3e,
  0x18, 0x28, 0xd8, 0x3d, 0xa2, 0x8a, 0x1b, 0xbe, 0x9f, 0x0b, 0x87, 0xbe,
  0x19, 0x57, 0x0c, 0xbe, 0x58, 0x77, 0x82, 0xbd, 0x8a, 0x75, 0x9e, 0xbe,
  0xbb, 0xb5, 0x93, 0x3e, 0xe0, 0x06, 0x56, 0xbd, 0xf0, 0xd6, 0xdc, 0xbc,
  0x13, 0xa8, 0x1a, 0xbe, 0x76, 0x7f, 0x8f, 0xbe, 0xce, 0x9b, 0x1f, 0x3e,
  0x00, 0x00, 0x06, 0xb8, 0xa8, 0xdf, 0xbc, 0xbd, 0x4f, 0xf1, 0x1e, 0xbe,
  0xf0, 0x37, 0xcf, 0xbd, 0xd7, 0x40, 0x1e, 0xbe, 0x68, 0x0a, 0x77, 0x3d,
  0xb4, 0x2d, 0x4d, 0xbe, 0xfc, 0xed, 0x8f, 0xbe, 0x59, 0x92, 0x4c, 0x3c,
  0x7f, 0x0f, 0x81, 0xbe, 0x8a, 0xfa, 0x13, 0xbe, 0x76, 0x6d, 0x8d, 0xbc,
  0xb5, 0x2d, 0x11, 0xbe, 0xbc, 0x4a, 0x99, 0xbe, 0x7c, 0x99, 0xca, 0x3d,
  0x80, 0x79, 0xd3, 0xbb, 0x03, 0xb1, 0xa3, 0x3e, 0x66, 0x56, 0xd2, 0x3d,
  0xb8, 0x05, 0xa4, 0x3d, 0x37, 0x43, 0x2c, 0x3e, 0x14, 0x6b, 0xba, 0x3d,
  0x34, 0x4f, 0xbb, 0xbd, 0x75, 0x6d, 0x19, 0x3f, 0xcd, 0x21, 0x79, 0x3c,
  0x10, 0x80, 0x69, 0xbd, 0x97, 0x14, 0xd2, 0xbe, 0xab, 0xdf, 0xaa, 0x3e,
  0x15, 0xb4, 0xbe, 0xbe, 0x65, 0xe9, 0x5e, 0x3f, 0xba, 0x6a, 0x01, 0x3f,
  0x31, 0x37, 0x43, 0x3f, 0x7a, 0x7a, 0x4f, 0x3e, 0xe9, 0x96, 0x22, 0xbe,
  0xd8, 0x7a, 0x0b, 0x3d, 0xd6, 0x2b, 0x7d, 0xbe, 0x0a, 0x0d, 0x73, 0x3e,
  0x36, 0x62, 0xf5, 0x3e, 0xc2, 0x91, 0x6f, 0xbe, 0x0e, 0x76, 0x1e, 0x3f,
  0xbe, 0xd0, 0x84, 0xbe, 0x9e, 0x5a, 0xdf, 0x3e, 0x98, 0xbf, 0xdd, 0xbd,
  0xc5, 0x04, 0x92, 0xbe, 0x7c, 0xa1, 0x50, 0xbf, 0x2c, 0xe3, 0x82, 0xbe,
  0x25, 0xcc, 0x15, 0xbe, 0xce, 0x9d, 0x1b, 0x3e, 0x40, 0xb5, 0xf9, 0xbb,
  0x90, 0xe7, 0xb6, 0xbc, 0xcd, 0x00, 0xf5, 0x3e, 0xf4, 0x21, 0xd0, 0x3d,
  0x72, 0x0f, 0xc8, 0xbe, 0x4e, 0x12, 0x73, 0x3e, 0x4e, 0x98, 0x46, 0x3e,
  0xe2, 0x4d, 0xa6, 0x3e, 0x49, 0x04, 0x8f, 0x3e, 0x1e, 0x16, 0x5f, 0x3e,
  0xf1, 0x03, 0x25, 0xbf, 0xc2, 0x38, 0x80, 0xbe, 0x91, 0x9d, 0x81, 0xbe,
  0x6b, 0xf2, 0x03, 0x3f, 0x07, 0x76, 0x39, 0x3f, 0x50, 0x4d, 0x1e, 0x3f,
  0x59, 0x88, 0xa2, 0x3e, 0x46, 0xa9, 0x2b, 0x3e, 0xf6, 0x31, 0x3e, 0x3e,
  0x90, 0x7f, 0xe5, 0x3d, 0x31, 0x9c, 0x05, 0xbe, 0xc6, 0x56, 0x23, 0x3f,
  0x60, 0xf2, 0x58, 0xbd, 0xbf, 0xe6, 0x21, 0x3f, 0x4a, 0x86, 0x5d, 0x3e,
  0x47, 0x22, 0x99, 0xbe, 0x7f, 0x77, 0x3a, 0xbe, 0x04, 0xfa, 0xab, 0x3d,
  0x92, 0x06, 0x54, 0xbe, 0x08, 0xbb, 0xd7, 0x3d, 0x5d, 0xa4, 0x4d, 0xbe,
  0x40, 0x83, 0x4d, 0x3c, 0x20, 0xef, 0x97, 0x3c, 0x20, 0x57, 0xfc, 0x3c,
  0xfe, 0xe4, 0xde, 0xbe, 0x60, 0x8d, 0x5e, 0x3d, 0x88, 0x74, 0x40, 0x3f,
  0xf4, 0x9e, 0x01, 0x3e, 0xc0, 0x3b, 0x14, 0xbf, 0x78, 0x60, 0xc7, 0xbe,
  0xc8, 0x51, 0x11, 0x3f, 0xd4, 0x7f, 0xaf, 0xbe, 0x7b, 0x02, 0x4d, 0x3f,
  0xde, 0xd2, 0x88, 0xbe, 0x6f, 0xe4, 0x2a, 0x3f, 0x1e, 0x18, 0xf6, 0xbe,
  0x17, 0xda, 0x89, 0xbe, 0x45, 0x7a, 0xaa, 0xbe, 0x56, 0x6e, 0x26, 0x3e,
  0xa9, 0xab, 0x80, 0x3e, 0x30, 0x9b, 0x76, 0xbd, 0x21, 0x57, 0x81, 0x3e,
  0xd4, 0x5f, 0x97, 0xbe, 0xa1, 0x14, 0xd0, 0xbe, 0xd8, 0x13, 0x9b, 0xbd,
  0xbb, 0x6b, 0x04, 0xbf, 0x20, 0xdc, 0x8b, 0xbd, 0xf8, 0x28, 0xb7, 0x3d,
  0x17, 0xff, 0x91, 0x3e, 0x4b, 0x79, 0x8a, 0x3e, 0xb6, 0x3e, 0x2f, 0x3f,
  0xd6, 0x07, 0x2d, 0x3e, 0x89, 0x5f, 0xaf, 0xbe, 0x85, 0x79, 0xad, 0xbe,
  0x78, 0xbf, 0x70, 0xbe, 0xb1, 0x4c, 0xa5, 0x3e, 0x22, 0x37, 0x53, 0x3e,
  0x9b, 0x95, 0xad, 0xbe, 0x58, 0x98, 0xef, 0x3d, 0xee, 0x17, 0x30, 0x3e,
  0x6f, 0x89, 0x4c, 0xbe, 0x6c, 0x89, 0x28, 0xbe, 0x90, 0x57, 0x7a, 0xbe,
  0xa6, 0x52, 0xa9, 0xbe, 0x04, 0x66, 0x84, 0xbd, 0x58, 0xfd, 0xe8, 0xbd,
  0x2d, 0x1d, 0x96, 0xbe, 0xf0, 0x8f, 0xdc, 0xbd, 0x24, 0xe4, 0xdd, 0x3d,
  0x5a, 0xc9, 0x3d, 0x3e, 0x5a, 0x22, 0xae, 0xbe, 0x2a, 0xb1, 0x65, 0xbe,
  0x41, 0x6e, 0x80, 0xbe, 0xc9, 0x54, 0x82, 0x3e, 0x8a, 0x00, 0x6a, 0x3e,
  0x04, 0x83, 0xa4, 0x3d, 0x10, 0xc3, 0xb3, 0xbe, 0x8c, 0xc8, 0x98, 0xbd,
  0x4f, 0x8b, 0x83, 0x3e, 0x18, 0x8a, 0xb2, 0xbd, 0xe1, 0x0d, 0x06, 0xbe,
  0xc9, 0x63, 0x3a, 0xbe, 0x0c, 0x83, 0x99, 0xbd, 0x0a, 0x38, 0x86, 0xbe,
  0x4d, 0xd1, 0x81, 0x3e, 0xab, 0xf6, 0xaf, 0xbe, 0x10, 0x6d, 0x9d, 0xbd,
  0x66, 0x98, 0xb4, 0xbe, 0x00, 0xf3, 0x7e, 0xbd, 0x55, 0xe2, 0x2e, 0xbe,
  0x98, 0x93, 0x1a, 0xbe, 0x7f, 0x7c, 0x93, 0xbe, 0x1f, 0x95, 0x9e, 0xbe,
  0x20, 0x04, 0x8c, 0xbd, 0x40, 0x27, 0x6a, 0xbe, 0x7b, 0x30, 0x0f, 0xbe,
  0x20, 0x61, 0x12, 0x3c, 0x02, 0xe1, 0x7e, 0xbe, 0xa0, 0x09, 0x5b, 0x3c,
  0x35, 0x08, 0xaf, 0x3e, 0xf8, 0xe0, 0x00, 0xbd, 0xc1, 0x70, 0x0c, 0xbe,
  0xe8, 0x00, 0x92, 0x3d, 0x24, 0x70, 0x8b, 0xbe, 0x0c, 0x86, 0xb0, 0xbd,
  0x35, 0x65, 0x8a, 0x3e, 0x00, 0x1f, 0xf3, 0x3c, 0xfc, 0x46, 0x33, 0xbe,
  0x28, 0x6c, 0x02, 0x3d, 0x64, 0x32, 0xf7, 0xbd, 0x58, 0xf2, 0x4f, 0xbd,
  0x38, 0x46, 0x94, 0xbe, 0xe1, 0x9a, 0x80, 0x3e, 0x7a, 0x2e, 0x34, 0x3e,
  0x0e, 0xbf, 0xae, 0xbe, 0xb3, 0xfd, 0x02, 0xbe, 0x18, 0xd3, 0x95, 0xbe,
  0xb6, 0xff, 0xe7, 0xbd, 0x3a, 0x64, 0x07, 0x3e, 0x51, 0x8d, 0x51, 0xbe,
  0xa4, 0x8c, 0x8c, 0xbe, 0x9f, 0xdb, 0x85, 0x3e, 0xa7, 0x05, 0xa1, 0xbe,
  0xa9, 0xcd, 0x8e, 0x3e, 0x93, 0xeb, 0x64, 0xbe, 0x40, 0x64, 0xd3, 0x3b,
  0x80, 0x1f, 0xc4, 0x3b, 0x01, 0x74, 0x90, 0x3e, 0xe8, 0xcf, 0x1a, 0x3d,
  0x84, 0xfa, 0x9c, 0x3d, 0x6d, 0xc0, 0x4d, 0xbe, 0x9a, 0xee, 0x34, 0x3e,
  0xda, 0x35, 0x1b, 0x3e, 0x02, 0x79, 0x4d, 0x3e, 0x61, 0x36, 0x8b, 0x3e,
  0x48, 0x8f, 0x5f, 0x3d, 0x38, 0xae, 0x0e, 0xbd, 0xf3, 0x40, 0x82, 0x3e,
  0xbc, 0x47, 0xb8, 0xbd, 0x58, 0x01, 0x92, 0xbe, 0xd8, 0x79, 0x00, 0xbd,
  0x7c, 0x0b, 0xcc, 0xbd, 0x3a, 0x33, 0x61, 0x3e, 0xa0, 0x7f, 0x4c, 0x3d,
  0x61, 0x1c, 0x73, 0xbe, 0x7e, 0x9f, 0x36, 0x3e, 0x04, 0x81, 0x9c, 0x3d,
  0x7e, 0xed, 0x51, 0x3e, 0x34, 0x01, 0x01, 0x3e, 0x57, 0xaa, 0xa7, 0x3e,
  0x48, 0x93, 0x97, 0x3d, 0x60, 0x34, 0x6a, 0xbd, 0x8a, 0xaa, 0x5c, 0xbe,
  0x98, 0x22, 0x03, 0x3d, 0x8c, 0x21, 0x1a, 0xbe, 0x48, 0x5d, 0x4c, 0xbe,
  0xec, 0xdf, 0xa3, 0xbe, 0x2f, 0x93, 0xb4, 0xbe, 0x5b, 0xc6, 0x9c, 0xbb,
  0x1b, 0x1a, 0xb1, 0x3e, 0x59, 0x2e, 0x86, 0x3c, 0x36, 0x08, 0xdc, 0xbd,
  0x2a, 0x99, 0x0a, 0x3c, 0xf0, 0x62, 0xf2, 0xbc, 0x45, 0x3a, 0x8d, 0xbe,
  0xea, 0x71, 0x37, 0x3e, 0x20, 0x4e, 0x39, 0x3d, 0x34, 0xc0, 0x99, 0xbe,
  0x06, 0x8a, 0x4c, 0x3e, 0x8c, 0x48, 0x5a, 0xbe, 0xec, 0xbd, 0x97, 0x3d,
  0x72, 0x42, 0xa4, 0xbe, 0x1c, 0x4c, 0x96, 0x3d, 0x12, 0x30, 0xb8, 0xbd,
  0x68, 0x51, 0x95, 0xbe, 0x11, 0x1e, 0x37, 0xba, 0x68, 0xad, 0xd6, 0x3d,
  0x42, 0x82, 0x98, 0xbe, 0xd4, 0xb6, 0x49, 0x3e, 0xd5, 0xc1, 0xa5, 0x3e,
  0xce, 0x08, 0x59, 0x3e, 0xa0, 0x8b, 0x27, 0x3c, 0x5a, 0x3b, 0x03, 0x3e,
  0xd4, 0x84, 0xfd, 0x3d, 0x30, 0xf6, 0xcb, 0xbe, 0x64, 0x6b, 0x9e, 0xbe,
  0x8e, 0x8a, 0xa2, 0x3e, 0xc8, 0xaf, 0xdb, 0xbd, 0xcd, 0xeb, 0x62, 0xbe,
  0xae, 0x3e, 0x0c, 0xbf, 0x11, 0xb1, 0x27, 0x3f, 0x42, 0xb6, 0x1c, 0x3e,
  0x9a, 0xbc, 0x7a, 0x3e, 0x1b, 0xb6, 0x82, 0x3e, 0xe8, 0xdd, 0x1b, 0x3f,
  0x15, 0xb3, 0x4b, 0xbf, 0x3f, 0x78, 0x20, 0xbf, 0xdf, 0xa3, 0xf3, 0xbe,
  0x49, 0x9c, 0x19, 0xbe, 0x74, 0x51, 0x9b, 0x3d, 0xb6, 0xbd, 0x9c, 0xbe,
  0xc4, 0x73, 0xa9, 0xbd, 0xd0, 0x48, 0xa9, 0x3c, 0x30, 0xf1, 0x32, 0xbe,
  0xfe, 0x53, 0x71, 0x3e, 0xee, 0xe2, 0x88, 0x3d, 0xf6, 0xc2, 0xb3, 0xbe,
  0xf2, 0x93, 0xaa, 0x3e, 0x2c, 0x70, 0xfc, 0x3d, 0x2c, 0xba, 0xde, 0x3d,
  0x6e, 0xbf, 0x5e, 0x3e, 0xc0, 0x1a, 0xf3, 0xbc, 0xb0, 0x3f, 0x94, 0xbc,
  0xec, 0x75, 0xcb, 0x3d, 0x4c, 0x01, 0x43, 0xbe, 0x22, 0x0d, 0x34, 0x3e,
  0xbe, 0xa5, 0x9e, 0xbe, 0x92, 0xd7, 0x3b, 0x3e, 0xdc, 0x2e, 0x5c, 0x3f,
  0x04, 0xdb, 0xaa, 0xbd, 0x35, 0x87, 0x64, 0xbf, 0xfa, 0x34, 0x81, 0xbe,
  0x90, 0x40, 0x0b, 0x3f, 0x00, 0xb1, 0xa6, 0xbc, 0x55, 0xfd, 0x88, 0x3f,
  0x64, 0xf1, 0x89, 0xbd, 0x70, 0x0a, 0xac, 0x3e, 0x63, 0xe7, 0x9a, 0xbe,
  0x43, 0x6d, 0x40, 0x3d, 0x86, 0xf1, 0x09, 0x3e, 0x25, 0x38, 0xa5, 0x3e,
  0x92, 0xbf, 0x09, 0xbe, 0xbc, 0x2a, 0x9b, 0x3d, 0xb8, 0x27, 0x6a, 0xbe,
  0x9d, 0x5e, 0x84, 0x3e, 0x71, 0x0e, 0x5c, 0xbe, 0xec, 0xa4, 0x9a, 0x3d,
  0x4a, 0x73, 0xc8, 0x3d, 0x5a, 0x26, 0x08, 0x3e, 0x90, 0x9e, 0x12, 0x3f,
  0xcd, 0x86, 0x1e, 0xbe, 0x87, 0xb9, 0x4e, 0xbe, 0x99, 0x8c, 0x54, 0x3d,
  0xd2, 0x8a, 0xad, 0xbe, 0xab, 0x06, 0xb0, 0x3e, 0xd7, 0xd3, 0xa1, 0x3e,
  0xa4, 0x0f, 0xa5, 0x3d, 0x04, 0x21, 0x96, 0xbd, 0x9c, 0x52, 0x52, 0x3f,
  0xe0, 0x5a, 0x9e, 0x3d, 0x38, 0x53, 0x1c, 0xbf, 0x8c, 0xb4, 0xc6, 0xbd,
  0xdd, 0x0e, 0x59, 0x3f, 0xce, 0x45, 0x94, 0x3d, 0x7f, 0xb5, 0xe5, 0x3d,
  0x73, 0xc0, 0x98, 0x3e, 0xb7, 0xa6, 0x3f, 0xbf, 0x86, 0x81, 0x7a, 0x3e,
  0x55, 0xda, 0xcd, 0x3d, 0x39, 0xaa, 0xd8, 0x3e, 0xbe, 0x5f, 0x02, 0x3f,
  0xe0, 0x2e, 0x02, 0x3f, 0xfa, 0x83, 0x26, 0xbe, 0x60, 0x87, 0xb8, 0x3d,
  0xc0, 0xe9, 0xb5, 0xbd, 0x83, 0xf5, 0x80, 0xbe, 0x99, 0x95, 0x5b, 0xbe,
  0x07, 0x31, 0x21, 0x3f, 0xdd, 0xe2, 0x69, 0xbe, 0x6a, 0x1a, 0xca, 0x3e,
  0x77, 0x60, 0x15, 0xbe, 0xdd, 0x17, 0xd9, 0xbc, 0xb5, 0x0b, 0x87, 0x3e,
  0x64, 0xa5, 0x87, 0x3d, 0x1c, 0x51, 0xd2, 0xbe, 0xdb, 0x74, 0xb4, 0xbe,
  0x82, 0x34, 0x90, 0xbe, 0xe2, 0x69, 0x15, 0x3e, 0xf8, 0x54, 0xb9, 0xbd,
  0x48, 0x95, 0x18, 0xbd, 0xec, 0xf5, 0xbe, 0xbd, 0x41, 0xc5, 0xa1, 0xbe,
  0x11, 0xb3, 0xb1, 0xbe, 0xd2, 0xd7, 0x20, 0xbe, 0xe6, 0x3c, 0x99, 0xbe,
  0x62, 0x74, 0x1c, 0xbe, 0xeb, 0xd8, 0x0d, 0xbe, 0xae, 0x18, 0x90, 0xbe,
  0xb3, 0x8d, 0x6b, 0x3e, 0xe9, 0x6b, 0x33, 0xbe, 0x78, 0xe8, 0x5e, 0x3e,
  0xc0, 0xc0, 0xed, 0x3d, 0x9a, 0xd7, 0x0b, 0x3e, 0x00, 0xba, 0xa1, 0xbc,
  0x09, 0x7b, 0xab, 0x3e, 0x40, 0x2d, 0xaa, 0xbd, 0x60, 0x93, 0xa2, 0x3d,
  0xd2, 0xa3, 0x18, 0x3e, 0x1e, 0x0c, 0x73, 0x3e, 0xda, 0x21, 0x8b, 0xbe,
  0x2e, 0x1f, 0x3c, 0x3e, 0xe0, 0x22, 0x9a, 0xbd, 0xf6, 0xf6, 0x30, 0x3e,
  0x99, 0x34, 0xaf, 0x3d, 0x75, 0x5f, 0x9c, 0x3e, 0x80, 0xc8, 0x33, 0xbc,
  0x9c, 0x74, 0x12, 0x3e, 0xbe, 0x89, 0x6a, 0x3e, 0x1a, 0xe6, 0x67, 0x3e,
  0xc4, 0xfa, 0x09, 0xbe, 0xf0, 0x1c, 0x37, 0x3d, 0x94, 0x65, 0x81, 0xbe,
  0xf6, 0x32, 0x0b, 0xbf, 0x74, 0xe9, 0xde, 0x3d, 0x37, 0xf3, 0xc6, 0xbe,
  0xea, 0x29, 0x63, 0x3e, 0xf5, 0xf1, 0x89, 0x3e, 0xfd, 0x36, 0x59, 0xbf,
  0x57, 0x5b, 0xe7, 0x3e, 0x3c, 0xc3, 0x85, 0xbe, 0xcf, 0x47, 0xb8, 0x3e,
  0xa8, 0x6f, 0x72, 0x3d, 0xd3, 0x5e, 0x3e, 0x3f, 0xf3, 0xa5, 0x8b, 0xbe,
  0x31, 0x40, 0x23, 0xbf, 0x9c, 0x79, 0xb8, 0xbe, 0x7f, 0xc8, 0xa6, 0x3e,
  0x30, 0x46, 0x8d, 0x3c, 0x58, 0xdf, 0x63, 0xbd, 0xe0, 0x77, 0xe8, 0x3c,
  0xb0, 0x2b, 0xba, 0x3c, 0x7e, 0xda, 0xde, 0xbe, 0x3a, 0x42, 0x68, 0x3e,
  0xfd, 0x57, 0xe5, 0xbc, 0x60, 0xd5, 0x62, 0xbe, 0xcf, 0x29, 0xfc, 0x3e,
  0x97, 0xd4, 0x84, 0x3e, 0x93, 0xf5, 0x1a, 0xbe, 0xf6, 0x83, 0x44, 0x3f,
  0x2b, 0x7f, 0xa8, 0x3e, 0x3a, 0xf3, 0x7c, 0x3e, 0x78, 0x52, 0xb0, 0x3d,
  0xb9, 0x49, 0x3c, 0xbe, 0x09, 0xdf, 0x94, 0x3e, 0x94, 0x30, 0xc1, 0x3e,
  0x7a, 0x9b, 0x6c, 0x3e, 0xd8, 0x5e, 0xf4, 0xbd, 0x3c, 0x97, 0x0a, 0x3e,
  0xef, 0xef, 0x78, 0x3f, 0xa3, 0x31, 0xcb, 0x3e, 0x54, 0x23, 0xb0, 0x3c,
  0xd5, 0xaf, 0xaa, 0x3e, 0x9c, 0x94, 0x5f, 0xbf, 0x10, 0x82, 0xcb, 0xbc,
  0x11, 0xe1, 0x74, 0xbd, 0xcf, 0x97, 0xc4, 0x3e, 0x71, 0xf4, 0xc2, 0x3d,
  0xe2, 0x49, 0xff, 0x3e, 0x65, 0x57, 0xaa, 0x3e, 0x30, 0xb0, 0x0a, 0x3e,
  0x44, 0x51, 0x83, 0x3d, 0x98, 0x60, 0x80, 0xbd, 0xba, 0xfe, 0x1d, 0xbe,
  0xb1, 0x97, 0x4e, 0x3f, 0xae, 0xb4, 0x36, 0x3e, 0x3b, 0x77, 0x02, 0x3f,
  0xf4, 0x1b, 0xd3, 0xbd, 0x0f, 0xe3, 0x38, 0xbe, 0x00, 0x47, 0x6b, 0xbd,
  0x67, 0xcd, 0xa6, 0x3e, 0xb8, 0xab, 0x05, 0xbf, 0xc3, 0xfb, 0x1a, 0xbe,
  0xb7, 0xba, 0x92, 0x3e, 0x64, 0xf2, 0xf3, 0xbd, 0x3a, 0xfe, 0xff, 0xff,
  0x04, 0x00, 0x00, 0x00, 0xc0, 0x00, 0x00, 0x00, 0xa5, 0xf8, 0xa4, 0xbf,
  0xc0, 0x14, 0x2c, 0x3e, 0xac, 0xda, 0xed, 0x3e, 0x1f, 0x63, 0x23, 0xbf,
  0xeb, 0x7e, 0x84, 0x3d, 0x2d, 0xae, 0x31, 0xbf, 0x3a, 0xe0, 0xa8, 0x3e,
  0x94, 0x90, 0x4c, 0x3e, 0x51, 0xff, 0x87, 0xbe, 0xe1, 0x8c, 0x22, 0x3d,
  0xd3, 0x4b, 0x5a, 0x3e, 0x9d, 0x1f, 0x4c, 0xbf, 0xe8, 0xab, 0x32, 0x3f,
  0xd3, 0x84, 0x3c, 0xbe, 0x11, 0x06, 0x12, 0x3f, 0xd9, 0xfa, 0xcf, 0x3e,
  0xd2, 0x8b, 0x90, 0x3f, 0x20, 0x89, 0xbe, 0xbc, 0x4d, 0x5d, 0x4c, 0xbe,
  0xaa, 0x3e, 0x81, 0x3e, 0x79, 0xeb, 0xc7, 0x3e, 0x4a, 0x39, 0x77, 0xbf,
  0x74, 0xde, 0x47, 0xbe, 0xee, 0x0d, 0xf0, 0x3e, 0x6a, 0x1e, 0x49, 0xbe,
  0x00, 0xde, 0xd9, 0xbe, 0x6a, 0x6c, 0x6b, 0xbf, 0x95, 0xcf, 0x89, 0x3c,
  0xa5, 0xfb, 0x23, 0x3f, 0x44, 0x30, 0xe2, 0x3e, 0x06, 0x2a, 0xa6, 0xbf,
  0x5d, 0xe9, 0x90, 0x3d, 0xab, 0x24, 0x4a, 0xbd, 0x47, 0x7c, 0xec, 0xbe,
  0x56, 0x53, 0x73, 0xbe, 0x0d, 0x86, 0x52, 0xbf, 0xc6, 0x69, 0x96, 0xbf,
  0x50, 0xb2, 0xcc, 0x3e, 0x7c, 0x75, 0x30, 0x3e, 0x04, 0xc7, 0xd6, 0xbd,
  0xe0, 0x7b, 0xec, 0xbe, 0xbb, 0xc9, 0x52, 0xbe, 0xc5, 0xd1, 0x40, 0x3f,
  0x23, 0xb4, 0x4e, 0x3f, 0x25, 0xcf, 0x7d, 0xbf, 0x55, 0x56, 0x03, 0xbf,
  0xfd, 0xa2, 0x65, 0x3f, 0x3b, 0xb2, 0x6d, 0xbf, 0x06, 0xff, 0xff, 0xff,
  0x04, 0x00, 0x00, 0x00, 0x0c, 0x00, 0x00, 0x00, 0xdc, 0x7b, 0xa9, 0x3e,
  0x0a, 0x83, 0x25, 0xbe, 0x3b, 0x12, 0x73, 0xbe, 0x1e, 0xff, 0xff, 0xff,
  0x04, 0x00, 0x00, 0x00, 0x40, 0x00, 0x00, 0x00, 0xa7, 0x0e, 0x98, 0xbe,
  0x00, 0x00, 0x00, 0x00, 0x16, 0x14, 0x40, 0xbc, 0x7d, 0x10, 0x4e, 0xbe,
  0x61, 0xd2, 0x5c, 0x3e, 0xb0, 0x03, 0xea, 0xbd, 0x00, 0x00, 0x00, 0x00,
  0x00, 0x00, 0x00, 0x00, 0x00, 0x00, 0x00, 0x00, 0x4b, 0x2c, 0x84, 0xbc,
  0x0d, 0x86, 0xd5, 0x3e, 0xf3, 0x4f, 0x87, 0xbe, 0x8c, 0xdc, 0x9b, 0x3e,
  0x10, 0x98, 0x06, 0xbd, 0x1d, 0x2b, 0xb9, 0x3e, 0x37, 0x2b, 0xd6, 0x3e,
  0x0c, 0xfa, 0xff, 0xff, 0x10, 0xfa, 0xff, 0xff, 0x0f, 0x00, 0x00, 0x00,
  0x4d, 0x4c, 0x49, 0x52, 0x20, 0x43, 0x6f, 0x6e, 0x76, 0x65, 0x72, 0x74,
  0x65, 0x64, 0x2e, 0x00, 0x01, 0x00, 0x00, 0x00, 0x14, 0x00, 0x00, 0x00,
  0x00, 0x00, 0x0e, 0x00, 0x18, 0x00, 0x14, 0x00, 0x10, 0x00, 0x0c, 0x00,
  0x08, 0x00, 0x04, 0x00, 0x0e, 0x00, 0x00, 0x00, 0x14, 0x00, 0x00, 0x00,
  0x1c, 0x00, 0x00, 0x00, 0x34, 0x01, 0x00, 0x00, 0x38, 0x01, 0x00, 0x00,
  0x3c, 0x01, 0x00, 0x00, 0x04, 0x00, 0x00, 0x00, 0x6d, 0x61, 0x69, 0x6e,
  0x00, 0x00, 0x00, 0x00, 0x04, 0x00, 0x00, 0x00, 0xdc, 0x00, 0x00, 0x00,
  0x94, 0x00, 0x00, 0x00, 0x50, 0x00, 0x00, 0x00, 0x14, 0x00, 0x00, 0x00,
  0x00, 0x00, 0x0e, 0x00, 0x1a, 0x00, 0x14, 0x00, 0x10, 0x00, 0x0c, 0x00,
  0x0b, 0x00, 0x04, 0x00, 0x0e, 0x00, 0x00, 0x00, 0x1c, 0x00, 0x00, 0x00,
  0x00, 0x00, 0x00, 0x09, 0x1c, 0x00, 0x00, 0x00, 0x20, 0x00, 0x00, 0x00,
  0x01, 0x00, 0x00, 0x00, 0x00, 0x00, 0x06, 0x00, 0x08, 0x00, 0x04, 0x00,
  0x06, 0x00, 0x00, 0x00, 0x00, 0x00, 0x80, 0x3f, 0x01, 0x00, 0x00, 0x00,
  0x0a, 0x00, 0x00, 0x00, 0x01, 0x00, 0x00, 0x00, 0x09, 0x00, 0x00, 0x00,
  0xce, 0xff, 0xff, 0xff, 0x10, 0x00, 0x00, 0x00, 0x00, 0x00, 0x00, 0x08,
  0x0c, 0x00, 0x00, 0x00, 0x10, 0x00, 0x00, 0x00, 0xd4, 0xfa, 0xff, 0xff,
  0x01, 0x00, 0x00, 0x00, 0x09, 0x00, 0x00, 0x00, 0x03, 0x00, 0x00, 0x00,
  0x08, 0x00, 0x00, 0x00, 0x03, 0x00, 0x00, 0x00, 0x02, 0x00, 0x00, 0x00,
  0x00, 0x00, 0x0e, 0x00, 0x14, 0x00, 0x00, 0x00, 0x10, 0x00, 0x0c, 0x00,
  0x0b, 0x00, 0x04, 0x00, 0x0e, 0x00, 0x00, 0x00, 0x10, 0x00, 0x00, 0x00,
  0x00, 0x00, 0x00, 0x08, 0x10, 0x00, 0x00, 0x00, 0x14, 0x00, 0x00, 0x00,
  0xba, 0xff, 0xff, 0xff, 0x00, 0x00, 0x00, 0x01, 0x01, 0x00, 0x00, 0x00,
  0x08, 0x00, 0x00, 0x00, 0x03, 0x00, 0x00, 0x00, 0x07, 0x00, 0x00, 0x00,
  0x04, 0x00, 0x00, 0x00, 0x01, 0x00, 0x00, 0x00, 0x00, 0x00, 0x0e, 0x00,
  0x16, 0x00, 0x00, 0x00, 0x10, 0x00, 0x0c, 0x00, 0x0b, 0x00, 0x04, 0x00,
  0x0e, 0x00, 0x00, 0x00, 0x18, 0x00, 0x00, 0x00, 0x00, 0x00, 0x00, 0x08,
  0x18, 0x00, 0x00, 0x00, 0x1c, 0x00, 0x00, 0x00, 0x00, 0x00, 0x06, 0x00,
  0x08, 0x00, 0x07, 0x00, 0x06, 0x00, 0x00, 0x00, 0x00, 0x00, 0x00, 0x01,
  0x01, 0x00, 0x00, 0x00, 0x07, 0x00, 0x00, 0x00, 0x03, 0x00, 0x00, 0x00,
  0x00, 0x00, 0x00, 0x00, 0x05, 0x00, 0x00, 0x00, 0x06, 0x00, 0x00, 0x00,
  0x01, 0x00, 0x00, 0x00, 0x0a, 0x00, 0x00, 0x00, 0x01, 0x00, 0x00, 0x00,
  0x00, 0x00, 0x00, 0x00, 0x0b, 0x00, 0x00, 0x00, 0x44, 0x04, 0x00, 0x00,
  0xc4, 0x03, 0x00, 0x00, 0x60, 0x03, 0x00, 0x00, 0x10, 0x03, 0x00, 0x00,
  0xc0, 0x02, 0x00, 0x00, 0x74, 0x02, 0x00, 0x00, 0x10, 0x02, 0x00, 0x00,
  0x7c, 0x01, 0x00, 0x00, 0xe0, 0x00, 0x00, 0x00, 0x60, 0x00, 0x00, 0x00,
  0x04, 0x00, 0x00, 0x00, 0xfe, 0xfb, 0xff, 0xff, 0x00, 0x00, 0x00, 0x01,
  0x14, 0x00, 0x00, 0x00, 0x1c, 0x00, 0x00, 0x00, 0x1c, 0x00, 0x00, 0x00,
  0x0b, 0x00, 0x00, 0x00, 0x34, 0x00, 0x00, 0x00, 0x02, 0x00, 0x00, 0x00,
  0xff, 0xff, 0xff, 0xff, 0x03, 0x00, 0x00, 0x00, 0xe8, 0xfb, 0xff, 0xff,
  0x1b, 0x00, 0x00, 0x00, 0x53, 0x74, 0x61, 0x74, 0x65, 0x66, 0x75, 0x6c,
  0x50, 0x61, 0x72, 0x74, 0x69, 0x74, 0x69, 0x6f, 0x6e, 0x65, 0x64, 0x43,
  0x61, 0x6c, 0x6c, 0x5f, 0x31, 0x3a, 0x30, 0x00, 0x02, 0x00, 0x00, 0x00,
  0x01, 0x00, 0x00, 0x00, 0x03, 0x00, 0x00, 0x00, 0x56, 0xfc, 0xff, 0xff,
  0x00, 0x00, 0x00, 0x01, 0x14, 0x00, 0x00, 0x00, 0x1c, 0x00, 0x00, 0x00,
  0x1c, 0x00, 0x00, 0x00, 0x0a, 0x00, 0x00, 0x00, 0x58, 0x00, 0x00, 0x00,
  0x02, 0x00, 0x00, 0x00, 0xff, 0xff, 0xff, 0xff, 0x03, 0x00, 0x00, 0x00,
  0x40, 0xfc, 0xff, 0xff, 0x3c, 0x00, 0x00, 0x00, 0x73, 0x65, 0x71, 0x75,
  0x65, 0x6e, 0x74, 0x69, 0x61, 0x6c, 0x5f, 0x31, 0x2f, 0x64, 0x65, 0x6e,
  0x73, 0x65, 0x5f, 0x32, 0x5f, 0x31, 0x2f, 0x4d, 0x61, 0x74, 0x4d, 0x75,
  0x6c, 0x3b, 0x73, 0x65, 0x71, 0x75, 0x65, 0x6e, 0x74, 0x69, 0x61, 0x6c,
  0x5f, 0x31, 0x2f, 0x64, 0x65, 0x6e, 0x73, 0x65, 0x5f, 0x32, 0x5f, 0x31,
  0x2f, 0x42, 0x69, 0x61, 0x73, 0x41, 0x64, 0x64, 0x00, 0x00, 0x00, 0x00,
  0x02, 0x00, 0x00, 0x00, 0x01, 0x00, 0x00, 0x00, 0x03, 0x00, 0x00, 0x00,
  0xd2, 0xfc, 0xff, 0xff, 0x00, 0x00, 0x00, 0x01, 0x14, 0x00, 0x00, 0x00,
  0x1c, 0x00, 0x00, 0x00, 0x1c, 0x00, 0x00, 0x00, 0x09, 0x00, 0x00, 0x00,
  0x74, 0x00, 0x00, 0x00, 0x02, 0x00, 0x00, 0x00, 0xff, 0xff, 0xff, 0xff,
  0x10, 0x00, 0x00, 0x00, 0xbc, 0xfc, 0xff, 0xff, 0x58, 0x00, 0x00, 0x00,
  0x73, 0x65, 0x71, 0x75, 0x65, 0x6e, 0x74, 0x69, 0x61, 0x6c, 0x5f, 0x31,
  0x2f, 0x64, 0x65, 0x6e, 0x73, 0x65, 0x5f, 0x31, 0x5f, 0x32, 0x2f, 0x4d,
  0x61, 0x74, 0x4d, 0x75, 0x6c, 0x3b, 0x73, 0x65, 0x71, 0x75, 0x65, 0x6e,
  0x74, 0x69, 0x61, 0x6c, 0x5f, 0x31, 0x2f, 0x64, 0x65, 0x6e, 0x73, 0x65,
  0x5f, 0x31, 0x5f, 0x32, 0x2f, 0x52, 0x65, 0x6c, 0x75, 0x3b, 0x73, 0x65,
  0x71, 0x75, 0x65, 0x6e, 0x74, 0x69, 0x61, 0x6c, 0x5f, 0x31, 0x2f, 0x64,
  0x65, 0x6e, 0x73, 0x65, 0x5f, 0x31, 0x5f, 0x32, 0x2f, 0x42, 0x69, 0x61,
  0x73, 0x41, 0x64, 0x64, 0x00, 0x00, 0x00, 0x00, 0x02, 0x00, 0x00, 0x00,
  0x01, 0x00, 0x00, 0x00, 0x10, 0x00, 0x00, 0x00, 0x6a, 0xfd, 0xff, 0xff,
  0x00, 0x00, 0x00, 0x01, 0x14, 0x00, 0x00, 0x00, 0x1c, 0x00, 0x00, 0x00,
  0x1c, 0x00, 0x00, 0x00, 0x08, 0x00, 0x00, 0x00, 0x6c, 0x00, 0x00, 0x00,
  0x02, 0x00, 0x00, 0x00, 0xff, 0xff, 0xff, 0xff, 0x20, 0x00, 0x00, 0x00,
  0x54, 0xfd, 0xff, 0xff, 0x52, 0x00, 0x00, 0x00, 0x73, 0x65, 0x71, 0x75,
  0x65, 0x6e, 0x74, 0x69, 0x61, 0x6c, 0x5f, 0x31, 0x2f, 0x64, 0x65, 0x6e,
  0x73, 0x65, 0x5f, 0x31, 0x2f, 0x4d, 0x61, 0x74, 0x4d, 0x75, 0x6c, 0x3b,
  0x73, 0x65, 0x71, 0x75, 0x65, 0x6e, 0x74, 0x69, 0x61, 0x6c, 0x5f, 0x31,
  0x2f, 0x64, 0x65, 0x6e, 0x73, 0x65, 0x5f, 0x31, 0x2f, 0x52, 0x65, 0x6c,
  0x75, 0x3b, 0x73, 0x65, 0x71, 0x75, 0x65, 0x6e, 0x74, 0x69, 0x61, 0x6c,
  0x5f, 0x31, 0x2f, 0x64, 0x65, 0x6e, 0x73, 0x65, 0x5f, 0x31, 0x2f, 0x42,
  0x69, 0x61, 0x73, 0x41, 0x64, 0x64, 0x00, 0x00, 0x02, 0x00, 0x00, 0x00,
  0x01, 0x00, 0x00, 0x00, 0x20, 0x00, 0x00, 0x00, 0x76, 0xfe, 0xff, 0xff,
  0x00, 0x00, 0x00, 0x01, 0x10, 0x00, 0x00, 0x00, 0x10, 0x00, 0x00, 0x00,
  0x07, 0x00, 0x00, 0x00, 0x44, 0x00, 0x00, 0x00, 0xd4, 0xfd, 0xff, 0xff,
  0x36, 0x00, 0x00, 0x00, 0x73, 0x65, 0x71, 0x75, 0x65, 0x6e, 0x74, 0x69,
  0x61, 0x6c, 0x5f, 0x31, 0x2f, 0x64, 0x65, 0x6e, 0x73, 0x65, 0x5f, 0x31,
  0x2f, 0x52, 0x65, 0x6c, 0x75, 0x3b, 0x73, 0x65, 0x71, 0x75, 0x65, 0x6e,
  0x74, 0x69, 0x61, 0x6c, 0x5f, 0x31, 0x2f, 0x64, 0x65, 0x6e, 0x73, 0x65,
  0x5f, 0x31, 0x2f, 0x42, 0x69, 0x61, 0x73, 0x41, 0x64, 0x64, 0x00, 0x00,
  0x01, 0x00, 0x00, 0x00, 0x20, 0x00, 0x00, 0x00, 0xd6, 0xfe, 0xff, 0xff,
  0x00, 0x00, 0x00, 0x01, 0x10, 0x00, 0x00, 0x00, 0x10, 0x00, 0x00, 0x00,
  0x06, 0x00, 0x00, 0x00, 0x28, 0x00, 0x00, 0x00, 0x34, 0xfe, 0xff, 0xff,
  0x1b, 0x00, 0x00, 0x00, 0x73, 0x65, 0x71, 0x75, 0x65, 0x6e, 0x74, 0x69,
  0x61, 0x6c, 0x5f, 0x31, 0x2f, 0x64, 0x65, 0x6e, 0x73, 0x65, 0x5f, 0x31,
  0x2f, 0x4d, 0x61, 0x74, 0x4d, 0x75, 0x6c, 0x00, 0x02, 0x00, 0x00, 0x00,
  0x20, 0x00, 0x00, 0x00, 0x02, 0x00, 0x00, 0x00, 0x1e, 0xff, 0xff, 0xff,
  0x00, 0x00, 0x00, 0x01, 0x10, 0x00, 0x00, 0x00, 0x10, 0x00, 0x00, 0x00,
  0x05, 0x00, 0x00, 0x00, 0x2c, 0x00, 0x00, 0x00, 0x7c, 0xfe, 0xff, 0xff,
  0x1d, 0x00, 0x00, 0x00, 0x73, 0x65, 0x71, 0x75, 0x65, 0x6e, 0x74, 0x69,
  0x61, 0x6c, 0x5f, 0x31, 0x2f, 0x64, 0x65, 0x6e, 0x73, 0x65, 0x5f, 0x31,
  0x5f, 0x32, 0x2f, 0x4d, 0x61, 0x74, 0x4d, 0x75, 0x6c, 0x00, 0x00, 0x00,
  0x02, 0x00, 0x00, 0x00, 0x10, 0x00, 0x00, 0x00, 0x20, 0x00, 0x00, 0x00,
  0x6a, 0xff, 0xff, 0xff, 0x00, 0x00, 0x00, 0x01, 0x10, 0x00, 0x00, 0x00,
  0x10, 0x00, 0x00, 0x00, 0x04, 0x00, 0x00, 0x00, 0x2c, 0x00, 0x00, 0x00,
  0xc8, 0xfe, 0xff, 0xff, 0x1d, 0x00, 0x00, 0x00, 0x73, 0x65, 0x71, 0x75,
  0x65, 0x6e, 0x74, 0x69, 0x61, 0x6c, 0x5f, 0x31, 0x2f, 0x64, 0x65, 0x6e,
  0x73, 0x65, 0x5f, 0x32, 0x5f, 0x31, 0x2f, 0x4d, 0x61, 0x74, 0x4d, 0x75,
  0x6c, 0x00, 0x00, 0x00, 0x02, 0x00, 0x00, 0x00, 0x03, 0x00, 0x00, 0x00,
  0x10, 0x00, 0x00, 0x00, 0xb6, 0xff, 0xff, 0xff, 0x00, 0x00, 0x00, 0x01,
  0x10, 0x00, 0x00, 0x00, 0x10, 0x00, 0x00, 0x00, 0x03, 0x00, 0x00, 0x00,
  0x2c, 0x00, 0x00, 0x00, 0x14, 0xff, 0xff, 0xff, 0x1e, 0x00, 0x00, 0x00,
  0x73, 0x65, 0x71, 0x75, 0x65, 0x6e, 0x74, 0x69, 0x61, 0x6c, 0x5f, 0x31,
  0x2f, 0x64, 0x65, 0x6e, 0x73, 0x65, 0x5f, 0x32, 0x5f, 0x31, 0x2f, 0x42,
  0x69, 0x61, 0x73, 0x41, 0x64, 0x64, 0x00, 0x00, 0x01, 0x00, 0x00, 0x00,
  0x03, 0x00, 0x00, 0x00, 0x00, 0x00, 0x16, 0x00, 0x18, 0x00, 0x14, 0x00,
  0x00, 0x00, 0x10, 0x00, 0x0c, 0x00, 0x08, 0x00, 0x00, 0x00, 0x00, 0x00,
  0x00, 0x00, 0x07, 0x00, 0x16, 0x00, 0x00, 0x00, 0x00, 0x00, 0x00, 0x01,
  0x10, 0x00, 0x00, 0x00, 0x10, 0x00, 0x00, 0x00, 0x02, 0x00, 0x00, 0x00,
  0x48, 0x00, 0x00, 0x00, 0x74, 0xff, 0xff, 0xff, 0x3a, 0x00, 0x00, 0x00,
  0x73, 0x65, 0x71, 0x75, 0x65, 0x6e, 0x74, 0x69, 0x61, 0x6c, 0x5f, 0x31,
  0x2f, 0x64, 0x65, 0x6e, 0x73, 0x65, 0x5f, 0x31, 0x5f, 0x32, 0x2f, 0x52,
  0x65, 0x6c, 0x75, 0x3b, 0x73, 0x65, 0x71, 0x75, 0x65, 0x6e, 0x74, 0x69,
  0x61, 0x6c, 0x5f, 0x31, 0x2f, 0x64, 0x65, 0x6e, 0x73, 0x65, 0x5f, 0x31,
  0x5f, 0x32, 0x2f, 0x42, 0x69, 0x61, 0x73, 0x41, 0x64, 0x64, 0x00, 0x00,
  0x01, 0x00, 0x00, 0x00, 0x10, 0x00, 0x00, 0x00, 0x00, 0x00, 0x16, 0x00,
  0x1c, 0x00, 0x18, 0x00, 0x00, 0x00, 0x14, 0x00, 0x10, 0x00, 0x0c, 0x00,
  0x00, 0x00, 0x00, 0x00, 0x08, 0x00, 0x07, 0x00, 0x16, 0x00, 0x00, 0x00,
  0x00, 0x00, 0x00, 0x01, 0x14, 0x00, 0x00, 0x00, 0x20, 0x00, 0x00, 0x00,
  0x20, 0x00, 0x00, 0x00, 0x01, 0x00, 0x00, 0x00, 0x3c, 0x00, 0x00, 0x00,
  0x02, 0x00, 0x00, 0x00, 0xff, 0xff, 0xff, 0xff, 0x02, 0x00, 0x00, 0x00,
  0x04, 0x00, 0x04, 0x00, 0x04, 0x00, 0x00, 0x00, 0x1e, 0x00, 0x00, 0x00,
  0x73, 0x65, 0x72, 0x76, 0x69, 0x6e, 0x67, 0x5f, 0x64, 0x65, 0x66, 0x61,
  0x75, 0x6c, 0x74, 0x5f, 0x6b, 0x65, 0x72, 0x61, 0x73, 0x5f, 0x74, 0x65,
  0x6e, 0x73, 0x6f, 0x72, 0x3a, 0x30, 0x00, 0x00, 0x02, 0x00, 0x00, 0x00,
  0x01, 0x00, 0x00, 0x00, 0x02, 0x00, 0x00, 0x00, 0x02, 0x00, 0x00, 0x00,
  0x20, 0x00, 0x00, 0x00, 0x04, 0x00, 0x00, 0x00, 0xf4, 0xff, 0xff, 0xff,
  0x19, 0x00, 0x00, 0x00, 0x00, 0x00, 0x00, 0x19, 0x0c, 0x00, 0x0c, 0x00,
  0x0b, 0x00, 0x00, 0x00, 0x00, 0x00, 0x04, 0x00, 0x0c, 0x00, 0x00, 0x00,
  0x09, 0x00, 0x00, 0x00, 0x00, 0x00, 0x00, 0x09
};
